[PAD]
[unused1]
[unused2]
[unused3]
[unused4]
[unused5]
[unused6]
[unused7]
[unused8]
[unused9]
[UNK]
[CLS]
[SEP]
[MASK]
!
"
#
$
%
&
'
(
)
*
+
,
-
.
/
0
1
2
3
4
5
6
7
8
9
:
;
<
=
>
?
@
A
B
C
D
E
F
G
H
I
J
K
L
M
N
O
P
Q
R
S
T
U
V
W
X
Y
Z
[
\
]
^
_
a
b
c
d
e
f
g
h
i
j
k
l
m
n
o
p
q
r
s
t
u
v
w
x
y
z
{
|
}
~
¡
£
¥
§
«
°
±
²
·
»
½
À
Á
Â
Ä
Å
Æ
Ç
È
É
Ê
Í
Ó
Ô
Ö
×
Ø
Ú
Ü
Þ
à
â
æ
ç
è
é
ê
í
ô
Ā
ā
Ć
Č
Đ
ī
İ
Ł
Ō
Œ
œ
Ś
Ş
Š
Ż
Ž
Ș
ʿ
ˈ
ː
Δ
Κ
Π
Σ
α
β
γ
δ
ε
θ
κ
λ
μ
π
σ
τ
φ
ω
В
Г
К
М
Р
С
Ḥ
Ḩ
„
†
•
‰
′
″
€
№
ℝ
→
∈
−
≤
≥
一
三
中
人
公
区
南
县
大
天
子
山
州
平
文
書
李
武
王
道
金
de
the
in
##s
of
la
en
and
##e
##a
to
##n
##i
The
der
un
di
que
##t
is
el
se
del
die
##r
und
et
na
##o
was
on
##en
##u
des
den
le
for
da
je
van
as
##m
sa
do
10
an
les
una
il
by
og
##y
2011
La
at
##l
##d
er
al
##er
von
In
du
with
av
##es
med
con
##k
2010
est
och
per
2000
som
los
por
2012
12
het
from
that
De
no
11
2014
2009
es
20
su
ja
2007
2008
km
##an
2013
15
om
im
com
##ta
2006
dan
##te
18
##na
para
mit
2015
als
El
como
his
ha
##da
##ing
une
24
Den
Die
##h
##ne
##g
das
En
30
##in
##re
14
par
13
16
##us
2005
##de
2016
és
au
25
000
dans
he
che
##on
2004
em
dem
##ch
19
it
2001
17
°C
til
2002
han
##ia
Le
Il
##le
las
della
New
##ra
ein
##is
um
si
2003
21
ist
var
Species
are
2017
op
zu
##z
22
für
##et
were
##os
od
son
An
26
World
##do
which
##ja
va
pour
ve
1999
##ti
sur
23
auf
##la
là
##é
II
##ed
Life
war
za
##to
##se
##ni
##no
or
be
28
det
##c
##ar
qui
He
az
te
##va
1998
27
mm
##nt
##ma
##ka
Catalogue
had
##ng
It
also
so
##je
29
1996
##li
1997
am
has
km²
dos
ur
##ie
##ri
entre
##as
University
lo
100
eta
##p
era
31
ni
##al
##j
##ce
1990
John
first
##ca
##ment
os
met
ou
2018
all
1995
##ko
aus
1991
##ó
1994
Der
non
foi
##si
1992
##em
af
har
##ly
their
ar
##b
film
avec
50
1993
one
##um
##sa
bis
Les
San
##ă
not
but
its
##v
ir
who
ny
York
##ga
##ς
her
##it
ang
Mexico
over
bei
ser
www
dei
##mi
##ki
alla
po
History
door
UK
1989
##ge
##at
dat
runt
have
this
40
American
##ba
1980
ed
species
##í
##ur
este
1988
ya
##ke
two
parte
ne
http
Ang
amb
bir
##st
plus
ITIS
##ro
Press
##el
under
##f
On
1986
1987
1985
978
meter
men
##man
been
dell
ini
familia
din
September
1984
##ci
Saint
sua
##ul
##ndo
album
1970
qu
United
ao
##mente
##ve
mais
Annual
seu
genus
##ą
Kirk
oli
##me
fra
Reading
Los
Michael
sie
##den
time
##za
##io
Bourgoin
NASA
1982
1983
##ów
Bailly
sont
III
1981
National
No
##á
after
1975
Det
##or
part
01
1945
dia
Das
1979
##nya
1972
come
##ya
red
##ten
other
Na
##x
France
they
sobre
##om
1978
William
tot
1968
1960
##di
1976
##kan
##ek
into
60
##ak
till
##ı
##lo
##ung
ble
06
1977
1974
1973
May
Paris
##2
ka
##S
1971
org
Mer
August
zur
mai
##A
dal
up
ng
This
new
aux
##ny
500
##ho
##1
##ju
sind
1969
Jean
International
Paul
City
##lar
##ji
200
April
att
ce
sin
Im
##go
more
nan
1967
pas
35
David
ei
##ts
US
##ción
1950
##co
TV
04
##ler
##à
man
Han
November
Robert
##tion
ma
1944
45
1962
London
lui
05
80
she
##ir
##ía
delle
St
1965
ad
when
32
65
été
sus
subspecies
due
##ku
cu
years
1964
1966
##C
States
fan
NGC
Het
##ze
later
##w
1961
##ter
07
ki
1941
As
Al
##3
##ë
County
1940
##ns
only
would
1939
##ik
James
##ers
1963
kan
03
##ry
me
Es
Er
##sen
90
##des
##ha
##ção
70
year
Charles
##ban
##0
pa
during
where
ze
##rs
can
1958
between
out
wie
George
him
Inga
sono
millimeter
##ę
noten
##ben
juli
alle
##ren
##sta
jest
ses
1956
##rt
about
Peter
1959
02
School
comme
1943
##tu
most
33
three
1948
fu
##am
##ou
##4
Earth
##ä
ben
1942
made
##ria
ye
##ov
00
1957
1930
1920
##il
used
1954
##mo
09
vom
##wa
Un
##jo
forma
##és
##ica
##be
Se
##ion
such
deux
08
known
36
South
ta
nie
then
USA
##ken
1946
You
Maria
##ina
34
final
1955
League
population
##land
1938
##lla
than
nu
1953
##ine
##T
300
IV
1949
Thomas
1918
India
1952
All
State
##un
Oxford
familie
club
July
1947
##zione
més
elle
Richard
##che
June
team
Az
1936
44
##P
##ner
##ic
care
second
##ł
zen
ca
Nel
Retrieved
##ok
##ig
##th
March
##nu
She
some
##ada
Santa
there
##ste
##ut
British
pe
Film
ke
West
data
##5
gli
area
##án
co
38
1937
born
400
any
became
##dos
##ton
##que
vor
place
Berlin
##ty
##tes
including
1951
pod
##ble
37
##das
well
cm
##gi
##6
October
##nen
General
through
being
##ní
North
season
##nte
##ll
doi
##ea
##res
Martin
##ant
January
Park
##ò
##vo
##ée
##né
1933
Love
##id
hat
ko
##ssa
database
Po
Society
cho
##E
##ck
tra
fost
pero
##les
##ning
##lle
1935
##ado
##R
##B
##ske
42
War
##gen
##I
##zi
1934
pro
1919
December
Em
##ot
##ist
64
bij
##nie
##ista
many
48
After
39
##der
##7
1914
nord
pp
##vi
Database
Europa
Club
Music
radie
Grand
ci
name
Museum
against
prima
fait
volt
1932
Louis
##nia
1929
will
total
One
bi
Man
1928
them
ai
##berg
41
dalla
nur
##pe
world
ab
55
##pa
before
amin
original
family
series
won
1917
##L
43
while
ale
##9
José
single
ont
Joseph
commune
uno
##nde
1931
cui
may
state
general
##tas
Records
school
sous
solo
##8
Art
For
##ski
juni
##O
base
##ent
via
nom
both
47
1924
75
##men
ex
work
people
Encyclopedia
gran
##lu
local
mars
grande
America
Lake
1927
until
##ky
##ger
##G
##ão
##ý
College
Union
Ny
##du
1922
##cia
1925
cette
##ura
1921
To
wa
1926
contra
Van
##ii
##sk
sein
##ol
##ón
##ā
##ć
##ska
history
number
##ad
##D
nombre
##nes
##mento
bu
Am
primer
esta
Nach
1912
February
System
Award
King
anni
##M
Las
bat
hi
1923
partir
51
52
Nacional
##tt
46
FC
##by
sem
##lt
##nd
##N
ay
released
##ien
##ai
Elle
Cup
House
sig
called
played
Italia
nem
same
##ə
##F
aber
1900
band
end
nos
River
49
asteroid
Sie
city
1910
Washington
##ach
Me
My
##are
China
même
Tour
Royal
His
four
##son
ing
Henry
ile
##ert
1913
village
##len
Pierre
based
Dr
li
English
tre
vid
Italy
##ron
California
##ita
##ies
##ire
56
##ian
##ana
nome
Canada
##ě
##ú
re
##cht
Red
##he
était
##bi
CD
IC
principal
54
Routledge
Indonesia
kilometer
sud
game
degli
##lich
Italian
##so
anno
##ische
Smith
version
##ks
après
ug
##ud
##ru
tres
1915
public
être
Juan
dit
long
They
Cambridge
At
England
##q
Air
##au
##ier
##cy
nun
##mu
Center
BBC
There
##ida
Madrid
Australia
Best
sau
early
##K
ut
several
1911
Company
Don
Si
ville
ans
##ls
Black
Association
53
Christian
dont
##im
use
84
these
Hall
since
150
Europe
Hans
ten
Festival
land
former
##ini
##V
UTC
##han
cada
go
Mai
1916
system
##bo
Do
Daniel
pela
Roma
group
600
Francisco
##nin
wat
Jan
leur
##ation
1905
##tor
où
home
57
Da
1908
##dae
found
58
station
fin
##ius
Census
East
Marie
Star
augusti
music
post
national
high
set
Island
##dor
like
1907
##ux
mas
##vat
now
ra
##nda
Karl
##lik
##idae
59
fut
Frank
Antonio
##iu
Stadt
##ker
Central
##ė
ga
nei
##ang
Japan
French
kg
XIX
show
off
800
following
pelo
##ige
##ua
##chen
##ico
##ted
premier
European
ban
Bu
##ice
Open
site
major
Observations
##hi
vida
Band
Journal
1906
Od
art
1904
day
began
##ive
century
1909
##ling
each
##ity
##ej
we
##ata
located
High
##dir
District
ili
Street
##sti
Als
##át
##gan
##ven
Zeit
95
novembre
Per
Edward
##zen
Division
net
service
##ui
held
autres
Population
Mark
##ei
Time
Land
aussi
Nord
Lee
##°
member
song
##rio
back
##era
85
Times
hans
##U
##rd
German
##nik
bien
Institute
Is
sul
named
hun
seg
##ville
##sch
government
120
Carlos
Group
##lan
depuis
unha
onde
##tan
nad
##ene
alors
Alexander
Live
62
XX
88
Hij
large
video
Modern
mot
Radio
Os
casa
age
##lor
également
##zo
##cie
company
##ure
life
##ley
district
Rio
##ran
Barcelona
São
production
line
72
meg
##ere
##ris
main
fr
First
##kin
##tte
mi
ali
Index
White
ainsi
Team
##ting
social
Information
##dan
Science
Una
took
##nce
left
siècle
##ně
Rock
Data
Op
ordo
série
around
did
could
1903
Mary
##bu
première
82
built
capital
1000
99
form
habitants
##tta
Friedrich
##té
However
Ein
fa
##ber
250
66
##ın
News
region
town
From
##ale
86
Carl
lan
pre
zona
Angeles
##val
Simon
tempo
finale
kom
famili
When
INSEE
##ère
##zioni
##burg
rock
side
play
present
1901
63
##ah
partie
sy
VI
Brasil
Pada
Su
Von
banda
Tom
##age
if
##sche
##tus
primo
Atlas
water
##ksi
Hill
##ique
kingdom
##ła
received
bio
Jones
##ás
Anna
##ano
1902
published
##ido
word
96
1890
61
67
Chicago
mar
81
served
98
97
point
##ð
##ros
Santiago
##liche
mort
List
Championship
Jack
Bureau
##ino
##mann
##cu
##nek
##dy
match
Awards
temps
Roman
Day
mu
include
top
Juli
700
##ü
68
##mer
because
Cerambycidae
etc
Juni
pri
mens
within
Real
##ms
##ito
##tet
Son
##H
central
##inen
Por
along
five
Sa
byla
##lı
83
record
España
##jen
said
Internet
##ego
Albert
Culture
Marine
76
radio
orang
provincia
##ate
##nje
##ima
six
puis
important
##ium
##ens
92
##jos
director
PDF
members
Texas
last
million
small
Album
##ari
Young
93
Big
died
program
football
What
1898
78
pel
Williams
##kt
Football
français
années
best
Walter
##ono
contre
71
Este
##ő
bila
media
91
##aan
##wy
##ι
77
Party
international
74
##lis
##leri
lors
jo
own
Indian
73
Vol
##zy
1897
During
1896
##rat
##lig
zo
vo
death
very
##ver
DVD
air
peut
1899
##gt
69
##ceae
vers
##we
Academy
87
##nja
building
##sten
##gu
yr
satu
Great
ela
Under
Sant
importante
##nis
1895
popular
Lac
lang
id
mis
control
Of
With
##č
##ld
Brown
third
##let
Johann
##ques
ele
services
89
tym
Nam
Werner
still
Road
##ν
trois
##ké
##rum
Bei
Wilhelm
centre
##X
##pi
those
##ara
col
Cerro
##od
##ys
##tti
Top
fou
And
Church
children
Mit
Night
##ite
##pen
##per
vol
##ez
By
##og
ter
##ato
1889
country
vier
1880
##nak
ia
##use
Version
##ele
included
jusqu
Jacques
mayor
book
94
##nti
##ser
north
né
María
Army
lat
##ster
##schen
##ue
##ť
Germany
##sia
eds
Asia
##ras
##ret
Super
causa
points
79
wo
ano
1870
Grande
##än
##ova
##sko
##chi
type
##ile
President
Scott
tai
Luis
##isch
##sse
##tar
just
Council
##ane
##ija
Social
Australian
##iva
Prix
Guerra
Centre
twee
dove
tour
##ş
ces
Con
Pedro
avant
Sir
Argentina
Max
led
Ende
another
We
##bar
##ye
comune
piano
Africa
So
near
ovat
title
see
##su
Liga
1886
old
often
Iran
different
##rie
Windows
1885
très
##kom
##sel
Harry
Mr
Verlag
##ona
##mas
dar
1894
##one
player
information
##ade
president
Department
down
Little
Arts
Portugal
Di
nas
##ák
Power
##line
sen
##van
position
Research
1893
##ft
live
Meyer
##cha
Jr
1892
##dd
groupe
role
Blue
what
##net
ich
fins
Sciences
1891
##ais
##eur
VII
##ça
order
Israel
François
Francia
##aren
web
car
late
tout
##ey
hoa
##ira
bet
described
Deutschland
##uk
poi
##lin
career
grand
##ore
Men
you
Dans
##ena
##W
Global
##ise
Teil
##vu
##est
1888
tu
110
XVIII
moved
##ika
##rn
Joe
##uje
plan
durant
Green
Lo
Universität
Adam
Good
Els
fel
##zu
hai
Wilson
make
XVI
##uri
grandes
studio
##able
Co
plusieurs
Creek
Manuel
##sis
monde
ez
Ed
sans
##ité
##ná
again
Nova
IUCN
period
##vel
##een
##ali
Arthur
##ring
##ves
Instituto
##α
south
support
Bay
##ses
Copa
Chris
##ges
kun
Bill
avril
quatre
Western
Prema
##ard
Jackson
way
Afrika
much
ho
##ente
ils
Song
power
##ih
##ín
women
gant
model
father
musical
##ham
##ende
##tra
##ž
Au
Serie
##ncia
similar
Two
house
Law
##lia
Chile
##ps
html
fois
ary
##eri
Her
##ès
1878
##rea
berg
Series
Mae
Johnson
Names
established
even
1883
maj
These
##ées
law
Li
##ati
article
États
##sh
##ds
Mike
Platz
Gran
Michel
##ix
##tic
level
1887
Thompson
##nom
face
Giovanni
Cette
Chinese
München
far
Ben
Register
##ì
Long
Steve
##ami
##ula
suite
##ide
norr
##tos
vil
##ee
##ala
Philip
##ons
among
hier
##cs
games
opera
1860
cap
Ce
##tà
##è
Media
##ły
Dit
Office
##met
style
Sud
community
circa
##het
Paulo
##op
##tik
1884
##fa
##nza
##via
Heinrich
full
##yn
using
came
Force
##mos
##ford
130
foram
##cher
##ism
written
Taylor
##issa
development
##ç
construction
##field
natural
sai
gan
list
php
##ss
1848
debut
1882
1881
juin
produced
##tis
fine
##ici
Lord
went
right
Show
next
##heid
lub
modern
started
become
Russian
avait
times
famille
Columbia
##nan
##rna
année
case
##eg
tous
##urs
Russell
ru
min
##tat
real
Service
Anne
Are
##cija
##tura
Para
##ous
students
##ell
##ados
given
avoir
Une
1st
1871
Roger
lain
##ës
##ο
Ali
##po
Billboard
married
##mus
UEFA
janvier
##rer
Bank
Women
##nn
Kim
material
900
##mes
various
##nim
average
Your
fire
septembre
Plants
##ingen
##ese
Year
round
Otto
take
website
##že
head
##ù
##bra
Bob
##cio
gov
origine
morte
dort
let
class
##ht
##ral
##ți
Inc
hay
saison
Ohio
octobre
1861
Henri
story
ac
1864
Malaysia
ging
1857
1879
##én
Virginia
modo
##tica
##yi
Empire
##vé
Entre
That
1800
##ket
plu
##eren
1876
Up
fer
Wien
##llo
Victoria
without
date
Esta
Florida
yo
tal
having
Reference
Republic
Seine
Boston
design
election
sia
##ismo
Special
##ungen
##tz
mer
language
Queen
dai
FIFA
store
VIII
##iem
Program
short
pop
term
contro
##hu
##bre
Foi
forces
Alfred
Ottawa
##rte
west
political
download
Francis
##ero
Ha
##igen
Ma
created
Francesco
##ement
Tony
division
Franz
Unis
##gang
Lewis
##bus
Een
##bel
vie
Old
cc
1877
titre
##rin
autre
##ili
ara
ft
juillet
##los
1873
1863
1810
metal
Je
1875
##ila
however
Book
1633
##ging
Des
##idad
Commons
1865
Natural
##nosti
##erd
##ff
1867
few
east
Digital
communes
André
##ét
African
Sky
##vis
##ram
México
Japanese
160
pays
##dia
professor
announced
arte
worked
##rar
1868
##ede
Stephen
Patrick
sei
Saison
Ray
ima
Villa
half
1850
##iv
Some
Google
##ën
##ong
XIII
online
Robinson
Home
Universidad
Costa
##iti
##ando
Miguel
dy
Johannes
180
joined
##jas
##if
Region
project
1500
##rus
See
economic
structure
Romania
##iques
Buenos
décembre
route
eo
ass
Nature
field
1866
1872
SS
XVII
1859
équipe
theo
vita
vir
wrote
vi
sos
140
Ia
Aires
free
Airport
notamment
##Z
Sun
Act
##nym
Rainfall
##ding
updated
Brian
1869
##ern
##heim
##las
général
##ett
sub
août
1862
days
lieu
##jon
Georg
##ña
##nas
Wikipedia
##ay
Andrew
##elle
tarde
Books
Lady
Jawa
works
##ness
Mario
actual
##ani
God
Amsterdam
Pro
Fernando
Canadian
Studies
race
Bad
returned
1874
Oscar
bol
party
military
status
fi
aj
125
XIV
professional
Online
Eric
##ella
municipio
Game
month
actor
##tre
release
##nts
Za
##lus
Institut
founded
##tive
Londres
##dad
Guide
open
##lli
Fue
Hot
Publishing
##ék
run
Korea
XII
XV
Court
##nus
2nd
lead
research
Dictionary
EP
Ludwig
##uta
https
101
win
possible
faire
##way
##nica
##bach
color
Wales
Oslo
##vas
Point
Library
miles
pola
homes
business
According
Mission
guerre
Marco
civil
television
Jakarta
hem
inte
Mundial
Elizabeth
lost
Victor
nationale
dag
Jim
human
Pour
Second
##erte
Auf
Prince
forme
Entertainment
##tal
##ae
##ń
##ties
Como
church
française
action
##ál
##her
##zer
cours
##una
##iro
Après
##xa
tant
eus
gab
magyar
recorded
sede
together
superficie
##ové
every
People
én
##tro
rei
Set
dette
Miss
Ta
anti
##illa
elected
Ford
##vá
leurs
##owe
Dan
Century
Sam
##osa
##bles
continued
films
Davis
dio
nouveau
Mount
considered
Wolfgang
making
Station
Project
office
ok
platt
principale
Alan
track
moment
Claude
##cus
episode
Be
chi
Fort
roman
Carolina
vai
body
##ori
IX
province
Nueva
##bia
example
Nr
Minister
Line
Estado
Most
##isk
Gold
##rne
policy
él
edition
encore
##jan
opened
ere
syn
Town
ti
##hin
wife
##nos
région
Professor
Valley
autor
##š
##wan
##ās
Model
kas
##ich
##fi
teams
stad
##ins
##ré
##gar
event
##lui
##ille
news
##lige
Việt
Auch
Golden
performance
##lse
##san
Cruz
Carlo
prema
Go
nam
Enrique
moins
eu
##ful
DC
Jersey
geographical
Bernard
Zealand
Sur
Corporation
##feld
active
bug
##nost
##haus
##ntes
Stone
sama
Sydney
Susan
##ći
special
Austria
ora
Committee
##uar
Britannica
##set
Other
Federal
result
##del
##bb
##lio
##isme
put
Games
Development
histoire
Out
février
##kel
Princeton
Who
qua
Um
105
##ag
Roy
Girl
##ct
##kou
1830
If
Post
sent
##ments
areas
##zie
##ión
##isi
##dal
Foundation
Ernst
Sin
mange
appeared
##nog
Space
##ose
hag
peu
Kong
available
Government
##nar
soit
##ões
##ces
further
lag
front
##up
private
Rome
Pacific
##ait
While
##fe
stand
Stockholm
san
growth
Master
tard
Miller
working
Latin
Für
common
living
XI
developed
formed
others
Web
Ireland
##oi
##oni
##ante
Hollywood
ligne
##gas
Public
Kingdom
##sson
##ño
##ean
Story
lu
##ło
Spanish
Russia
Diego
embargo
##υ
census
novel
nebula
##mar
mondiale
Bruce
study
Review
1840
mint
##Y
##pus
Order
eng
Premier
##rono
entry
Va
##eta
Pennsylvania
Islam
Alex
science
Yn
official
##nta
Port
##kat
young
Sea
Premio
Board
Budapest
##še
Anthony
##and
Lepidoptera
##ggio
##wood
addition
himself
##ete
##zia
Part
##dores
great
signed
although
Navy
##oa
Network
Movie
##hen
mare
recensement
never
how
América
Regional
interior
tras
devient
Battle
Last
Milano
cultural
102
should
Can
Janeiro
Samuel
Family
##sku
topon
##isen
##ette
Biography
Ort
lett
##fer
NBA
##tie
Douglas
neu
Its
##ivo
court
##jí
parti
celui
Rose
##ao
map
1858
playing
Fox
##dá
Main
disco
Non
##dt
section
appointed
##nou
Gordon
park
##ö
collection
##werk
Civil
once
##get
Disney
pendant
##ši
Monte
ant
tam
Illinois
hon
Final
Du
##ary
personal
sea
idea
municipal
Commission
away
education
selon
##ora
hit
Roberto
filme
##ych
##dra
Georges
Santo
##lag
##min
Summer
##vano
How
Country
exemple
##pt
current
standard
must
donc
##less
vs
Major
cas
##iya
350
Video
##my
nich
##zza
Trade
Anderson
##ans
##ká
Norte
leader
##če
dois
fils
particular
##ör
Hamburg
Microsoft
##cos
##tions
##ść
##vet
politique
force
mil
police
fast
person
black
Integrated
río
pot
1856
dua
Sport
Education
##owa
Leipzig
polo
##ého
1854
Report
classification
Casa
kilometers
Hong
return
##don
diverse
Howard
##ē
kang
##nto
character
Heart
File
Allen
though
##zh
Like
does
##ela
taken
Internacional
Plant
104
##pan
Southern
aver
Massachusetts
my
ham
Ltd
across
Mountain
process
Three
##tto
Nations
Campeonato
bere
start
##ama
1849
opp
##ola
chef
Theatre
culture
square
hy
##ast
##det
books
tan
stor
##ava
sine
samo
aby
##tek
##lari
##iste
mal
##kar
##ota
good
Joan
tid
inn
##cion
Planet
sang
##ário
Anh
début
Village
help
##ân
Colombia
1855
Frankfurt
guitar
dies
hand
Georgia
Volume
##mis
##rsi
festival
daughter
Christopher
zone
source
##ön
##iin
genre
Marc
Toronto
motor
##iden
white
homme
Catherine
##º
Québec
Soviet
Business
performed
events
Greek
##ī
ada
mother
families
minutes
less
1852
Tokyo
cause
currently
Tim
dira
Mexican
get
gen
Norman
3000
terra
sold
##sto
cao
##iga
##vy
drama
course
Manchester
Northern
415
gave
largest
##tin
stage
située
##ije
##sin
Magazine
Moore
features
Kevin
upon
Will
##ō
Boy
##ries
Deutsche
Harper
##art
##tzen
##ping
Stanley
alto
Minor
##vos
Philippe
170
Hotel
nouvelle
##gia
##J
##stand
##aria
Human
État
Walker
includes
##ott
Pakistan
magazine
Middle
ani
directed
Gabriel
change
grad
oa
songs
FM
##dar
##ias
Death
##lta
##hus
Catholic
Hoa
Michigan
##vin
Director
Universal
road
##imo
sale
##nne
ouest
sé
sense
Finland
ins
alt
Sports
##its
quali
designed
Burton
##či
Gary
DNA
##port
Bell
##asi
##ish
quelques
m²
Ze
té
##ség
Small
1851
text
##heit
ordre
Jane
Johnny
103
ger
months
originally
issue
##fen
Maurice
##dom
##house
1853
sol
parts
shows
tae
ensemble
##wie
Coppa
##leg
7th
celle
##tore
##ios
Since
##yo
Ab
Est
direction
range
Beach
mid
mod
usa
##din
league
##ient
##ial
format
Irish
low
##king
center
Ivan
vu
tri
église
##tel
Hitler
##bile
##că
groups
climate
Denne
seen
##čka
nova
1846
Way
Province
Cross
regular
anterior
##tum
##ñ
##liga
Giuseppe
115
roi
Light
##mia
ba
followed
planet
Venezuela
ku
##tur
##lé
Centro
coach
classe
##gs
Over
##ev
Johan
##lon
##red
##jes
##ngen
disse
##menti
training
##ński
Historia
##ngan
Name
Mar
vocals
brother
Clark
##tori
taun
Mais
Josef
Fall
Encyclopædia
1847
medio
light
seven
García
##mit
##gh
1815
##usi
completed
âge
Although
Kelly
double
##ría
##rak
##cal
Alberto
##hn
##zar
##like
Milan
Meter
Loire
dalle
220
Marcus
Institution
##yon
111
Macmillan
Ontario
uns
importantes
Alpes
terme
Jesus
Hermann
##iz
Dance
bad
test
pag
107
108
Hamilton
##oli
size
zou
##gio
superior
cargo
mise
ISO
##well
pedig
cinq
ante
negli
##bau
permet
featured
killed
Ann
##ions
Stand
sue
Billy
dir
Mann
Wild
semi
volume
cara
##smo
usually
countries
##rik
##ê
throughout
1845
##tico
bod
Back
##wi
Ferdinand
desa
père
Health
##lde
360
moderne
##oon
Vietnam
verso
reported
étant
Hugo
More
1842
##ec
Nelson
##zio
Technology
immer
Puerto
trouve
##uit
finished
Del
page
##yan
Philadelphia
remained
##car
Congress
Edition
##eo
oro
Field
surface
Down
membres
cum
schools
Barbara
Fire
##ades
240
leading
players
##ture
transport
Hospital
Britain
##ków
above
##gel
Not
software
Studio
1844
Stuttgart
Sul
##dem
époque
ABC
sites
DJ
Nederland
Alice
close
cover
##ones
##ap
Dave
##xe
membre
individual
##hed
college
106
Moon
##ša
gas
près
##uan
##adas
Sri
Andrea
##sy
either
##tud
contract
##jem
##ule
##sky
week
##shi
##mal
Free
Nick
Directory
112
##ony
begin
président
love
Near
SAD
##ρ
Jazz
1814
Spain
awarded
dernier
elles
aircraft
1837
drie
Jorge
Vincent
##tia
bay
Val
Dark
128
able
Lawrence
space
##ech
chez
Dat
##ult
Rudolf
simple
##stein
még
rôle
##nden
termine
##bes
##ô
##sed
##fall
1839
eight
Theater
Jimmy
Zu
##wski
Et
Adolf
département
##rse
Anton
situé
Med
involved
##uto
Hun
##ał
bili
##lah
1834
niveau
About
##int
Single
Sherman
hab
primordial
1835
##ches
Code
##mon
Missouri
Nobel
Baden
added
bin
federal
##rta
109
##ving
least
##rk
Township
Charlie
pol
Minnesota
##dur
Eastern
##ort
##itat
states
##nh
persona
Khan
##oja
eventually
gang
ek
Come
Barat
fram
attack
##å
formation
1838
Dead
##pes
PC
##sing
Guy
135
Jordan
##bor
##nio
Era
##led
Ana
##ors
##gue
related
##gos
Blues
metres
Jonathan
Later
##film
##ères
##ming
##tle
Porto
##ová
artist
Ten
Junior
##dre
Pape
##ab
##nice
Mas
Conference
##èt
plant
Boys
##kov
1843
Donald
##kas
##nna
Nicolas
##rice
gibi
regional
degree
##ár
##ance
Ryan
student
##bin
replaced
cases
Management
##eti
provided
Jacob
##nder
1831
rue
existe
unit
wis
Amt
Course
Río
Duke
##iske
centrale
sta
##iche
##sal
medal
eau
winning
vice
Tod
Sarah
Asteroid
sera
casi
##aire
Channel
Ele
Magyar
étaient
Indiana
self
hos
Terra
##cho
Ian
independent
Tropical
goal
##pp
##ized
1812
1836
editor
##rit
##ül
ul
##ow
1644
producer
Levy
nature
presso
certain
competition
1841
star
normal
117
##dorf
Stadium
planta
kommune
anu
Franco
##kim
Winter
##var
##ovi
Museo
##ić
Bruno
190
deuxième
##over
Harris
studies
Rosa
grote
western
compte
##vad
Com
too
Keith
Ross
rights
Greenwood
##lat
León
camp
René
clubs
1600
future
seme
450
ver
ensuite
##az
Gesellschaft
##ania
Chief
Kansas
fort
Atlantic
##py
previous
Harvard
little
##uma
Railway
mao
1832
Girls
Apollo
##hr
1833
female
Pays
##ská
Brazil
systems
##elt
##logia
Four
1820
End
ancien
##ario
Germania
Frau
MTV
Third
Jason
Haus
Timur
Teatro
3rd
Andy
uk
##ute
Benjamin
gmina
Renaissance
##bio
##llen
##eno
##ef
##sus
##pis
##wo
wel
Head
##eu
##ires
Opera
Salvador
Ils
Machine
Segunda
environ
##ře
##ί
Herbert
rather
Baker
pay
És
provide
Islands
port
Oliver
scène
publication
whose
nombreux
##ats
Leo
tien
Fred
230
##ym
pdf
1793
##ase
##ped
Sierra
Asian
Scotland
night
placed
##och
canal
ground
dues
Mac
fourth
toute
digital
Erik
##ća
Form
Graham
minister
direct
manager
ayant
Kreis
don
genom
ag
Lincoln
Sein
##aux
jour
Collins
Adams
bass
bilan
forte
code
river
123
déi
Matt
But
114
Wright
##ics
label
Songs
Hy
##ward
113
ami
##dio
##weg
##rii
tog
success
##ța
health
owned
Body
Prize
##umi
##ned
##xo
##gal
carrière
HMS
review
mission
Tag
author
introduced
ever
##oma
1821
ran
arts
##wer
750
##ük
##hl
corpo
Fu
##ento
erst
##logie
Castle
stated
porte
seis
Baby
##lles
Champion
mois
Partido
Justice
reached
orbit
sedan
##ides
Nazionale
dr
116
Libraries
##lte
Arizona
Another
bisa
Welt
Colorado
saw
##gy
Just
Jewish
División
Now
almost
movement
Regiment
espèce
210
Frederick
Morgan
##ets
legal
##bal
Gustav
Let
##ır
##isten
management
Sainte
petit
behind
southern
Musik
Today
Morris
units
##kog
Revolution
basis
Liste
network
Historical
Robin
##dus
##igt
Charlotte
Studios
Selected
UNESCO
##λ
Pablo
Bayern
##dig
Guinea
Object
costa
Apple
complex
Jeff
Santos
##inin
##ður
Cuba
Gallery
##sme
##rde
quasi
scored
1200
Express
cel
Straße
##und
Many
epi
Corps
##ż
Wang
##hausen
Daily
mat
##iai
König
CIA
Edwards
Championships
Christmas
Contemporary
Luigi
decided
##sz
##ament
3D
1825
length
pak
##ities
hui
municipality
Mars
parents
feet
##pin
période
influence
tale
Remix
ship
souvent
market
Fritz
conditions
Dream
1700
campaign
Raymond
brought
successful
commercial
##wane
rest
jeu
northern
Andreas
Paolo
ob
Ces
Survey
Medal
custodian
João
##sar
island
##lang
Vilnius
doit
Arab
need
produce
##fica
Stati
soll
Doctor
reste
principales
mans
county
approximately
Age
##ča
tournament
##ord
##aa
1829
Stefan
##tiva
##sie
ole
kW
armée
##stan
##any
male
sector
121
AS
##ß
##kon
industry
Bridge
instead
##gne
Papa
stati
Sound
Par
5000
##ip
Cultural
turno
Champions
##dis
THE
1828
our
Captain
001
Ett
Place
1806
##kal
elements
results
##sion
required
##kus
Orchestra
elevation
Memorial
Pietro
previously
##mat
##wyd
##cida
122
américain
ua
##pu
especially
Stewart
##gus
Coast
##jar
##cer
rapport
Laura
##bil
##out
118
##non
##teur
LP
##mm
Euro
figure
Sultan
##ction
traditional
Gray
feat
Get
below
Coupe
Their
internationale
report
jazz
outside
writer
##endo
Pop
Angel
Steven
basa
Muhammad
means
Bishop
##èrent
Wrestling
##esi
organization
listed
itself
originale
Garden
127
corps
##nju
honor
Ez
lived
Grant
Ao
##nel
##ib
sometimes
##ät
##ical
##ande
Société
Miami
primary
gouvernement
Woman
writing
Kr
##eli
interest
musique
Bull
##lie
aki
##nal
afin
YouTube
Forest
Berg
##ione
##ró
rata
Rafael
Official
Route
liste
bit
Jerry
seat
champion
Dutch
Dom
changed
attended
fand
##ži
Water
##pel
score
Marshall
figura
obec
Play
SM
##mba
Collection
donne
Silva
##inde
Catalunya
plays
award
López
Design
Arnold
continue
Haute
significa
minor
Sons
femme
Jon
##yer
EU
##aja
##ude
jadi
##nk
anglais
Mix
train
Airlines
##czy
buildings
enn
##dat
Pas
past
Gli
Melbourne
libre
##ologie
str
##jer
1802
##sos
finales
tuli
Dame
bland
épisode
Primera
126
Area
Kennedy
theory
##eurs
museum
toujours
##nici
1824
dog
lingua
##pia
González
conquest
senior
stal
featuring
Geiger
issues
aller
Warner
Springer
##chten
280
find
Standard
145
soon
##ška
mètres
Sommer
Chart
complete
Poland
chaque
Avenue
##hip
1789
château
##ein
1813
##erne
paper
Stars
Academia
nou
Köppen
##lly
view
##ual
Wisconsin
1826
significant
runs
##town
jours
Murray
Assembly
Monitoring
money
sport
Antoine
##ém
##gon
##worth
bronze
##zet
1818
AG
board
bang
##ndi
Families
administration
##tua
Lucas
124
260
hommes
Arena
Olympic
porta
mes
singer
Larva
119
##our
tracks
Etter
beginning
Wolf
opening
army
names
Lyon
higher
problema
Bij
summer
Alle
Peel
Lost
##ã
Franklin
##log
Alexandre
##rato
arrondissement
Margaret
Canal
##rata
Comets
running
Born
155
##borg
Norden
ji
Fame
fall
##bili
Carter
child
Police
Kinder
Classification
defeated
Sony
association
##ular
wide
auteur
##rios
Municipal
according
##bert
##ain
Mal
problem
WWE
Mitte
generally
Sen
Köln
taking
##eva
##time
Mei
##ema
give
strong
valor
towards
##ology
eru
175
##side
whom
##ène
associated
##esa
##eko
##rek
##pat
Updated
Barry
bar
millions
Vladimir
gold
##yen
AC
1790
highest
SC
industrial
hospital
amor
Phil
NHL
intentions
Julie
Peru
combat
##nga
allowed
charge
lower
eli
scene
Matthew
image
Campbell
goals
##ales
##rdi
Helsinki
##nge
Kurt
##mt
practice
plans
USS
sports
Dal
##ists
##cat
outcomes
location
##oda
unique
effet
Dies
##bat
prix
##eth
##ost
engine
income
##ím
Warren
Here
Rhône
Cover
##sé
auto
matches
ibn
Page
Children
totale
railway
Holland
Brothers
esto
pred
##ndan
contains
##inger
##ller
Aus
1801
heavy
##mé
woman
food
270
##ac
##zed
##cı
access
Wood
ATP
Following
1816
##cies
better
##gé
##tir
global
Abu
##mine
1822
##gd
129
PlayStation
##els
Turner
##mek
rate
##rant
resto
nous
toutes
operations
##oje
##iera
Medical
##ures
##ador
##yle
hari
131
Madonna
enfants
##istes
Liverpool
movie
rural
property
132
##ža
##har
Amor
##cis
144
##cas
OS
Metal
administrative
Evans
nommé
##tter
articles
mode
Iowa
Plan
##lands
ended
##iana
Racing
papa
tok
##ør
Fernández
closed
##bt
key
1819
ministre
thus
##etan
coma
##hal
Denis
Müller
système
cinema
capita
##ué
##iska
Our
Astronomical
études
Roberts
1827
Marcel
distribution
metro
Ar
##mie
##esta
fille
##itas
##ence
Tennessee
oft
##uda
Statistics
hold
Durant
Java
droit
##kai
effect
##tina
Bis
personnes
##nier
##vit
œuvre
Pictures
distance
##aka
##τ
##jet
Television
euro
JR
prend
##bie
134
Wayne
##nut
sex
Houston
Dia
Community
Zur
##kor
Jay
liga
1758
additional
##ric
spent
##mp
##vio
noted
loss
move
##logy
situation
société
152
stations
##uh
##rad
jeune
energy
20th
Louise
##ciu
1792
Gilbert
Early
insect
VM
##essa
Tras
Fra
fact
##atan
Cape
ch
##idos
logo
Dean
##yd
Pan
Highway
diverses
133
##back
Lima
retired
##cks
eastern
##usa
premiers
##TV
##eni
famous
##vić
protein
folk
1817
##aba
Spring
Julius
parties
Catalog
Popular
Stuart
evidence
peuvent
Kirkwood
Brookings
Delhi
Bau
ingen
Hockey
cet
##tig
Only
Eva
Moscow
today
basen
Allan
##rade
Marina
older
battle
Castro
##bahn
computer
##cki
projet
Broadway
Zagreb
Afghanistan
##rede
##rado
Lorenzo
##rium
Parker
Chr
records
sexe
##lsen
##ings
Temple
livre
##wana
ana
Record
136
##gin
Mrs
##ged
misma
1808
Yang
represented
kon
1809
create
demi
##kos
Austin
##nant
##itz
cost
launched
Blood
cele
Om
fir
companies
terms
sino
CBS
Earl
Scottish
animal
##zat
cosa
Hills
Cooper
Deep
Alto
Valencia
font
##nger
earlier
Political
trade
Jana
##ün
biti
voir
320
cast
turn
##iko
vote
staff
lagu
##enia
internet
cha
137
territoire
Years
Engineering
Systems
vain
thought
poste
1795
##ator
nes
Bach
##ame
mana
##adi
Federation
albums
agent
militaire
Zone
##icos
##lerin
HD
1803
##icu
##num
Bot
##vre
##all
Allemagne
##ós
##ont
htm
##atu
##nski
##vala
changes
notable
Rodríguez
Silver
Guerre
sources
##ża
estate
##ney
##ues
153
already
recent
##uer
##eus
##tak
Elisabeth
##nse
##ías
journal
Arte
##uti
Christ
decide
Ernest
feature
maison
Sau
Economic
numerous
voi
speed
anh
##IS
##wego
going
##ür
##pet
dès
appearance
École
985
bas
1823
##cing
##dag
hard
Fischer
favor
Martín
analysis
Eduardo
tom
takes
aujourd
##olo
Kunst
eigen
##eria
##ime
##cker
##til
hotel
Valle
##rada
types
Days
Ministry
##ega
Parliament
characters
Wars
##hat
##ize
specific
Olympics
entire
##dit
192
##ær
value
Vice
fosse
##bury
Italien
Class
DDR
##ër
##tique
Bulletin
entered
##stes
concept
Watson
Nintendo
decision
##ering
165
##aje
##oto
##pie
Front
##rre
édition
annual
Iron
##lom
tendo
Türk
Plus
Jest
places
dire
limited
##ust
Five
##är
mano
##taa
##hy
sociale
Democratic
##Q
##ulu
sit
activities
prime
officer
Nicholas
musica
Linux
##eve
troisième
1811
increased
operated
sound
villages
##ră
##zing
letter
Complete
programs
host
Before
Bir
Parks
##zin
censo
linea
Julia
##iri
fet
Kota
##mica
Spider
##rm
##end
##lem
Lloyd
Conservation
maps
here
Ken
##aga
travail
##vor
separate
##rel
Ari
religious
function
bus
Bobby
Or
Rolling
BC
Domenico
Secretary
Yu
Negeri
##mel
Kent
Reich
Pérez
née
##af
##isa
##riu
Unión
Leon
certains
école
Eddie
Ne
concert
marine
chief
bank
##ň
Military
##iel
serve
Hon
##zel
tête
##rz
medical
Singapore
149
Motor
Som
présente
anime
Taiwan
Raja
bli
championnat
artists
138
Square
##ration
Napoli
perché
majority
Mont
Editors
##cle
Ball
Language
Desa
Guatemala
Site
réalisé
Rolle
2019
##lne
Secret
Position
mille
##zik
##ill
##lad
148
1804
shot
content
143
Bergen
caused
lines
##ško
Sankt
##etta
mae
Wall
element
##bs
Films
##tant
##sm
Nouvelle
Dragon
always
selected
studied
##pun
room
got
Ve
hours
141
##zes
##wen
Oklahoma
##ço
classes
Ancient
Lisa
Ciudad
Discovery
##more
GmbH
1807
Atlanta
remains
temple
tim
##ży
##stadt
Gruppen
joueur
latin
programme
île
139
sexual
Thailand
Schmidt
Maryland
us
Kentucky
Larry
cross
husband
##ois
forms
##aal
pie
Imperial
Parti
ak
idi
gilt
Sol
plaza
particularly
##une
1805
##tem
Lan
Ai
Italie
Harold
146
##shire
bem
Kenya
Neil
organisation
1794
##bare
##for
scale
comarca
Histoire
##eau
République
##lation
Mayor
monument
Soul
Oregon
Detroit
Met
Sunday
victory
positive
##mise
Hannover
Sebastian
##ines
Torino
İstanbul
##vou
##erna
##jä
university
##form
Box
Original
technology
Magic
tv
OL
sola
nombreuses
Mississippi
Urban
mostly
index
##ally
aid
##rate
Alfonso
##zt
##rem
Australien
leis
##ridae
##hon
19th
Profile
Bird
toe
application
Mi
##bos
##ball
sister
NHK
relationship
Roland
147
rugby
Wagner
meeting
relations
lot
kur
act
moun
cities
altitude
Harrison
deve
Knight
Ligue
Geographic
185
villa
note
multiple
Alabama
rus
extra
Polish
historical
orde
uses
Dennis
recording
becoming
Ralph
Ukraine
referred
142
Shakespeare
Publications
notes
Terry
##hes
Mitchell
##fied
hin
society
Jeho
deal
Unit
##nem
Prime
##icus
##ace
Base
Isabel
Preis
grâce
Abraham
##ug
Mans
##gn
nine
Henrik
capitale
directeur
##iano
Osten
##stra
##ization
Laurent
Zürich
##ep
##stu
Dick
shown
supported
Hier
##die
##jn
##nsa
Dallas
passed
Queensland
versi
Hughes
##ére
Camp
Kaiser
##kk
comte
presented
native
Din
gare
##cem
canton
subject
##air
succès
##dea
Hunter
##lja
tradition
forced
##qué
dwa
##cca
Hi
Nancy
##rá
Kina
Novi
operation
Control
##pas
##oe
hau
Rick
##sat
##ís
1798
Schule
friend
pouvoir
Tu
Singles
campus
diri
Selon
Threatened
stark
##tone
##bet
kilometres
##oz
Tommy
UA
Serbia
amo
individuals
##nic
tenir
##teen
pr
Sint
##als
##sas
longer
stat
lea
Boeing
NFL
middle
themselves
##ores
Fe
Perry
##dh
pat
muss
##ppen
Independent
Jules
ancienne
##hof
Guardian
engl
question
radius
##oso
##rou
Ho
diversi
##yla
Services
Note
203
dus
fill
##eda
provides
##yt
politico
##tein
##rung
##rg
serving
pages
nota
Dorf
##nz
meno
Ricardo
##see
##rka
##çi
côté
##ên
##èn
Foreign
Carmen
programma
##lot
jer
##ako
appears
##iers
increase
1799
Re
##10
##por
variety
##isation
##ól
##osi
Leonard
episodi
##tien
##of
##ole
Prima
151
développement
##yang
##gua
##mana
Danny
protection
Rey
politician
furent
##unda
création
##tate
cô
1791
GMT
sort
Ron
ultima
##ët
done
mère
Rob
problems
##head
4th
phase
##wn
virus
##gie
vest
159
Unter
156
dance
##pur
##trice
Dei
sik
composed
1400
Muslim
##lage
larger
168
zones
Egypt
your
Baron
Alain
seul
Galicia
Comics
Never
##zas
fiction
apie
assim
Units
##anie
Governor
initially
Schloss
##ume
Naval
loi
Felipe
Limited
Ecuador
##dou
154
1797
pois
Frauen
Notre
##cco
azt
Dublin
##uz
Ocean
Korean
bo
Natur
sala
stock
sou
stop
raised
singles
##maa
##chte
##gem
César
##lara
Mercedes
cadre
prison
Uruguay
Classic
Emma
Singh
Orange
##stad
makes
330
Ye
religion
EM
financial
##lum
##xi
call
rond
##has
##bank
##off
fem
Ferrari
Krieg
Alaska
##iet
Vienna
##uch
gift
Also
Jerusalem
laquelle
##zada
Flora
##jana
Maine
Six
existence
Graf
pilot
Guillaume
populations
##rica
Masters
races
experience
Torre
##unt
Congo
king
contact
Metro
Chemistry
##seen
pl
connu
punt
deu
Buch
##ub
##ised
devant
Medicine
Berliner
##wald
550
MBC
Computer
terre
##ght
sat
Bar
massa
Peace
##wel
##ved
raz
##oy
versions
##dne
##tok
believed
Oriental
mag
ball
201
##yr
dice
##platz
Burg
agit
claimed
parish
##ř
écrit
Republika
cell
Hand
weeks
Anders
Side
Mare
championship
stars
vila
##fu
Philippines
nuclear
union
##rian
Colin
##bit
Production
dû
Introduction
failed
allo
fight
architecture
domaine
duke
Historic
##band
##kap
FA
quand
foreign
##nska
Martínez
##ann
gouf
Federico
université
1796
Meister
##iger
command
siège
##mir
winner
mainly
Lanka
Rica
troops
electronic
##bility
nave
offered
225
Lane
1775
Hugh
Theo
##ún
ceux
##dere
205
Primary
Sánchez
##cz
Joachim
##rkan
bal
Perú
##nidae
##kka
##ös
vivo
locale
moi
helped
Affairs
Dresden
boli
products
Due
##iki
##ick
vert
Seattle
Willem
167
##rana
##nat
##recht
Université
##bro
Security
Karel
mam
##imi
##yk
Sweden
tennis
Hudson
overall
border
fans
numbers
##oko
Lors
vann
##kie
Grammy
subsequently
consists
##ggi
Kate
1300
couple
might
prior
Both
##idas
Jo
##gli
aire
Montreal
Dam
##zos
drug
assistant
response
Edgar
Giorgio
##onia
leaving
hall
acquired
Rico
##gut
MS
521
Ich
##ché
157
opere
##dent
turned
##lingen
##ctor
press
hockey
##scher
whole
Belgique
##nça
##onal
##tou
sui
##eb
Energy
figures
##00
oil
Seven
Newton
department
sam
##rra
carried
##ars
Vicente
##ppe
allemand
##water
Phoenix
transfer
##lam
Cook
##nun
bridge
##gg
mile
650
mind
nego
Ved
290
##iones
Electric
raison
Bush
##vil
Angola
viz
##gna
meaning
stories
vocal
##mina
161
Batman
Jesús
##aj
houses
##ove
Software
Marvel
##cken
##uo
Operation
Emmanuel
Zum
Feb
cabo
Delta
##gde
Take
Solo
##nud
fora
Action
##mme
état
Drama
interview
##ssen
1980s
Teresa
ancient
opposition
Despite
##ños
##lje
Bas
nim
Rom
158
Sus
Braun
multi
sing
finally
##stica
Caroline
Galerie
##ε
voice
SBS
163
dernière
Theory
##straße
effects
SK
##ktor
Via
sortie
##lina
##rda
Sean
marriage
PS
Wiley
sien
earned
Railways
permanent
words
Beatles
Type
##gate
Petit
##lica
##nze
##aya
impact
SA
##bas
passa
pole
##rst
##fo
##jin
Ba
occasion
Helen
attention
Cleveland
Ward
Grace
tropical
Sachsen
Klaus
##ike
Afrique
Statistical
voix
Bremen
Jennifer
Depuis
basso
renda
déjà
Edinburgh
manga
nearly
treatment
Sophie
Swedish
languages
passe
Württemberg
broadcast
Conform
attempt
seasons
Sarajevo
habe
comes
enough
Baltimore
Sofia
lives
Tower
plants
##dik
##vam
##wr
machine
Capital
Pero
Dakota
Bundesliga
torre
Eduard
Sevilla
Minh
##rina
Sweet
remaining
##meister
Chelsea
Te
##row
Iraq
KBS
reference
milieu
Formula
##rius
Boris
Napoleon
Potter
Tra
Nguyễn
Ronald
256
##list
Round
##iros
bl
Run
channel
Luke
Sex
##ory
##iar
166
Editorial
Future
box
##lit
##ncies
##noj
Théâtre
Nation
want
starb
##vik
product
Mundo
Vancouver
sens
covered
##ship
ring
Ring
levels
femmes
fills
##tri
Mart
Lars
164
Wiener
252
responsible
Vegas
prendre
##ök
##hez
##ded
##uf
Cymru
##sation
##ū
Japon
cut
176
Bretagne
proposed
##cke
##lata
tin
Building
Ban
fuit
fit
162
Isaac
Child
dina
Heritage
##rico
AB
##psis
217
224
4000
Wide
Holy
NATO
Key
chanson
##hold
Cameron
Felix
##enti
IBM
Canton
latter
issued
ata
joue
##tation
Hal
clima
technique
rencontre
Craig
Emil
##pte
##uga
initial
meilleur
206
regions
##üm
competed
Hawaii
heart
ala
Connecticut
##eid
asi
##łów
chart
participe
coa
discovered
##jat
finals
minute
NBC
Espagne
Kane
bare
##lay
Alessandro
sorti
Republican
extended
Ouest
table
documents
##ilo
Stato
##OS
##oj
retour
Rugby
##rier
##lade
Store
travers
Transport
Website
Justin
ailleurs
195
1780
yet
factor
Again
##enne
Renault
##hir
1784
1970s
além
Door
security
Cet
know
##uro
junior
Archive
vel
235
##ock
1787
Holstein
starting
##cka
dock
208
whether
##ston
##kes
Agency
Shaw
##ters
Alliance
Forum
sciences
##stas
##igo
##gó
quality
172
kata
Brigade
disease
importance
##rien
Polonia
lor
Places
lid
182
Plaza
beaucoup
Bulgaria
##mma
told
##jska
##rni
Bee
Chi
##hos
1783
Côte
##rée
grade
##aar
leave
##este
travaux
Alter
cos
quest
177
luz
##że
Butler
Bonn
rule
##mont
##etti
##med
Kings
allow
remporte
##lak
friends
lies
Administration
##iny
god
VF
master
Palace
Éditions
inter
212
true
Cristo
Was
Between
##kem
mass
##àn
Uma
Netherlands
##ttu
Nigeria
households
newspaper
215
Spencer
1788
elections
##ctus
haut
residents
##fication
drums
directly
213
##tako
musicale
Metropolitan
Calais
##și
169
##ikan
##fel
despite
Hindu
Hope
##ess
##tidae
rivière
candidate
Jakob
basketball
##elo
Emperor
actions
efforts
##ése
##zzi
Hansen
Grupo
##oir
Sergio
Study
constructed
Glasgow
Czech
Islamic
asked
says
selle
Wallace
##ago
##ří
produit
Hell
jamais
202
grandi
Domingo
##iji
Chen
##vina
big
Campo
recherche
Challenge
Tartu
commence
##pio
##lies
activity
hal
Youth
Rainer
##skie
coast
##ór
Berkeley
##alo
Organisation
Linda
##ees
barn
frère
##eit
fifth
##ple
formerly
Works
consiste
##dde
bile
graduated
inferior
204
ea
##rf
cine
##vali
corte
##²
Trust
seconde
nation
Nepal
##care
ud
Productions
Kiss
kind
MM
Liberal
Short
Princess
Senate
Helena
380
##itu
nearby
Herman
Roll
Rights
kilomètres
indica
promoted
median
##enden
##ivi
Forces
petite
seulement
Freedom
Facebook
##tten
mere
##bora
pai
Elena
188
Hart
mogu
István
données
percent
Diana
Kenneth
Brooklyn
désa
Bolivia
Olivier
langue
managed
Gregory
maximum
##hs
##cima
179
##ști
##sco
340
##gens
method
Deux
Utah
search
parfois
donna
medieval
##rati
primarily
Murphy
bois
num
Greg
models
Player
##kla
211
baseball
##ome
##iten
Facts
##nji
ton
ll
##aki
##ioni
techniques
178
dess
171
females
Tamil
##bla
images
Test
Theodor
likely
##gent
##js
eux
183
##dale
Marne
IATA
ships
servir
Turkey
193
##ated
quel
animals
##ible
##com
exterior
Leopold
181
##ulo
arter
##rca
NY
##èl
##sza
1785
ID
TBS
crime
##iere
SP
wing
##bon
Leonardo
argent
##owi
Tanzania
Squadron
Norway
arrived
wanted
##ants
alternative
Commonwealth
partire
pare
origin
##ensis
##rno
Rebecca
Bologna
1776
##eel
##ldi
duc
##ther
##ló
highly
savo
commerce
##schule
appear
Alla
##20
Jonas
journalist
##vent
posterior
##oo
équipes
184
Venezia
Bond
hulle
##år
executive
catalog
Happy
trains
Avec
Local
Ice
##rol
Source
grands
Fantasy
##nation
Birmingham
acteur
Lucky
222
passage
##mark
cancer
Frans
##gis
##nsi
##bol
207
Torres
Allah
Harvey
##zon
performances
occidental
##tva
platform
sob
János
##ème
##ām
Publishers
174
Tot
Race
##arna
Conseil
romano
Auguste
particulier
##par
Gene
Titre
tat
bataille
Alta
Oh
Petersburg
Counties
##nent
FK
saying
Mind
Cultura
Turkish
##pos
173
Orleans
1960s
##jus
Ain
partner
founder
1990s
Wind
##lare
Île
##tera
timp
projects
##cina
Weg
##isé
197
Javier
##ér
crisis
prominent
théâtre
quelle
Supreme
bon
Klein
nouvelles
##fte
##lls
##chu
##tiques
##dora
Louisiana
##ffer
Aircraft
##alt
physical
Senior
appearances
prej
Indien
abord
Upper
Marx
oriental
Clarke
Provence
historique
pont
Magnus
ina
Nombre
Luna
##yar
##ossa
##eron
Heaven
Uni
Angelo
Ted
Member
knowledge
##gere
inside
##erer
Swiss
AD
Musée
##nau
duo
Price
ju
Bowl
extension
conta
Xbox
communauté
##ining
Jose
##asa
SR
##ovat
Baptiste
edu
##inu
wi
##vne
Rangers
##fort
card
objet
SE
##idea
Carol
Common
approach
literature
Wu
Once
Creative
potential
Sara
##aron
Clara
##rze
##tung
gminy
capacity
gun
Soc
Pete
bolo
Armee
Albums
Friends
Văn
Manhattan
Vila
Falls
Reserve
##pta
rules
##uni
##buch
revealed
formal
##ery
aide
Nell
sole
480
dun
Gerhard
Amy
##juk
eri
Julian
commonly
##but
promotion
##eto
Season
cells
##ode
##zne
library
positions
Grund
transferred
materials
tree
focus
file
account
##oka
##eet
aurait
espèces
bases
dix
##ík
Each
américaine
187
##rov
longitud
##zan
Noord
Notes
Paz
##gle
OF
##iad
Landes
poor
punk
fare
blue
5th
##iidae
Malta
Auto
vant
meet
utilisé
Toledo
##éu
##uden
surtout
probably
Florence
##ény
Rain
Philipp
officially
186
scientific
##lma
Change
forward
smaller
##nium
##stone
##sha
parmi
Dog
Pod
green
soldiers
équipements
SPD
Irlanda
Through
build
Nash
Finale
Lieutenant
autour
urban
##eten
Chapter
Autor
Sci
221
dedicated
Stein
199
Halle
density
Musical
##ln
##nova
designated
Ses
##lda
pass
silver
1100
Proceedings
Madison
renamed
209
Heinz
Generation
construit
firm
Pink
Rogers
##enta
except
Alejandro
principe
Bahn
blanc
##ray
##ever
Holmes
Alexandra
divided
##km
awards
vis
198
Minas
lac
Liu
dead
pressure
seda
1786
brand
Düsseldorf
Christoph
Sullivan
##có
1770
##kia
Persian
##con
Right
Off
pou
algo
Episode
##rah
sons
council
Mobile
temperature
##μ
expression
##tit
solar
Atlético
collaboration
Where
jih
1750
Académie
189
241
Davies
##ø
terminal
Call
Ramón
moving
ibi
Gmina
parc
##ép
grave
##zka
flight
officers
lack
quais
Christine
##şı
quickly
travel
viel
sets
ability
ig
Miles
episodes
2020
links
##mai
Executive
##zni
191
grew
Julio
##isti
titled
réseau
Mother
trial
job
Cinema
##tif
desse
lane
gut
##ave
Abdul
##ense
unde
Full
##eken
Double
secret
##anza
quartier
loc
Evolution
créé
196
Morning
216
Bình
moral
Serra
Beck
audio
planeta
Nga
Heidelberg
follows
Text
historic
join
Punta
XXI
auteurs
##cum
##bou
Jefferson
##rés
Eurovision
Peak
conducted
##onen
Angleterre
mixed
HC
recently
mouvement
##ional
Córdoba
monte
214
##rim
Rachel
say
academic
Xavier
diffusion
226
ordered
MHz
becomes
Wie
épouse
needed
Lang
Cole
ideas
##uu
drive
Château
540
Pittsburgh
##sberg
Irak
offers
keep
Beijing
workers
Schleswig
László
PR
street
##oti
Parque
Bros
Dos
Sungai
Owen
dessa
Quebec
sales
Lu
Virgin
floor
##ttes
NCAA
share
##eer
Golf
Pope
##tino
Ankara
thu
Yale
personnel
introduction
##mak
Storm
275
##rir
removed
Augustus
serial
rare
Luxembourg
stone
##nir
defined
Fauna
Neue
mang
##ével
angol
##name
Koch
##eng
Adrian
Organization
settlement
##cé
esti
Gino
##park
232
Command
Hard
Biology
##kirche
Rural
##late
royal
Arkansas
##gues
coming
Première
Car
##bé
##vie
Portal
parking
Ruth
Bass
Pont
lb
##vao
310
différents
BMW
Money
##kle
Pyrénées
##tio
##jal
##gruppe
roles
##tare
archaeological
##entes
255
Tierra
immediately
##rch
crew
gauche
Stanford
##nit
##fan
##dera
Grey
queste
##dang
Mercury
##cada
##enie
##bourg
Wasser
Cap
intended
amount
##uce
##ington
##uka
True
Bangladesh
pris
alone
destroyed
##ER
Phillips
##iant
Église
thi
Mountains
Walt
pi
prince
##ages
housing
Jeanne
Mason
fonction
IP
spider
prie
##rów
##sit
Performance
split
Clinton
##ied
##rang
370
participated
##vers
Because
##can
leaders
Sua
Constitution
compagnie
Brandenburg
Esto
##ncy
##jima
Religion
Nos
upper
##aine
Zaragoza
Jeux
##sce
risk
Shanghai
Food
##sma
Weekly
##pers
break
Link
##fy
##ví
##uli
Más
Ecology
operating
##iza
youth
Bachelor
Bruxelles
victoire
honneur
##kker
##cular
##wang
Suisse
420
##assa
##tea
##kur
rad
Étienne
##nega
actress
Know
Mozart
dias
reach
campagne
Internationale
pari
##cta
Got
planned
Enrico
widely
hora
facilities
##enberg
##sman
Twitter
##light
acid
Cependant
Analysis
vari
##eld
Industrial
Blake
##lk
##tors
##iek
##etto
##lir
458
##chter
Piano
AM
britannique
Alonso
##bis
instrument
Iglesia
Tres
seule
Avery
saint
Aaron
##dzie
Case
Sub
Inter
Hungarian
Commissioner
##aran
Living
##zak
actually
##ums
Athletic
##ents
##rini
238
Handbook
Paula
territory
Dylan
##ives
Montana
habitat
districts
Erich
owner
223
Edmund
Palazzo
giving
Mali
##ening
Trophy
##aceae
##anti
offer
footballer
Tor
Claire
Zeitung
Bang
musée
gara
Wikipédia
purchased
tales
Alt
Joel
Among
Tal
Armstrong
serves
obtient
##inn
##aro
asl
Shah
194
Spirit
Résumé
Bryan
##tika
1774
leaves
equipment
##koa
critical
obtenir
therefore
Pradesh
1782
Physics
mari
##lama
##dien
demande
cura
##encia
Plata
Zhang
cela
torna
Montréal
##cchi
CEO
Weber
##day
visual
Karen
purpose
##eden
##enen
Simpson
Stevens
##ık
Dollar
Away
218
Hungary
cars
##tag
##icht
Mayo
Philosophy
civile
males
fellow
conflict
typically
##bad
Say
##lna
##ussa
poet
rive
##esse
ice
organized
Nevada
Escuela
MC
440
votes
branch
Monaco
mobile
composition
Face
felt
varie
institutions
##kse
things
Laut
Zuid
Scientific
##ière
##zte
##tów
girl
pista
##nsis
Derby
##kant
CA
Todd
##zna
birth
condition
Pat
Ahmad
Armenia
Next
adopted
Symphony
hour
##owo
Bristol
acqua
##12
##win
Kongo
publié
Sicilia
Granada
##gina
Ville
##nad
Rev
##book
deriva
Why
Colonel
Norwegian
premières
Artes
rival
oblast
1772
defeat
assigned
regime
Comité
lequel
1778
armes
##él
##hte
##wick
hindi
sociales
plupart
##ello
##ote
##ám
2500
expansion
##rten
Voice
cependant
##vien
Romano
Fine
Map
Saturday
##rul
Have
##nka
Reed
reviews
Bernhard
##bres
Prof
clear
USD
Kind
##jev
##rri
##sun
6th
##nelle
248
Utrecht
força
##isia
Bible
circuit
conseil
provincial
dau
Tuy
hen
##inga
Fisher
mentioned
gene
blood
effort
structures
continua
##yev
Charts
lake
accepted
Col
Geological
Number
vous
Ferenc
850
Marcos
Greatest
##ș
read
Frederik
tar
##TA
gives
##rist
1781
pan
foot
##ations
234
##gono
##tad
Viktor
Andrés
Ángel
Rei
##amt
mor
##mist
communication
teacher
tandis
Voor
IF
Panama
##iser
plantes
engineering
##upa
##esen
1777
Marseille
declared
##bot
tome
##coli
##ckt
conference
captured
electric
##tom
231
accident
frac
archive
Augusta
Thomson
##bek
formes
Staten
##ES
russe
Cat
genera
##uses
Ellen
DE
Americans
Gómez
Mesa
manière
volumes
##ws
profit
guide
kar
acting
##ious
basic
##uno
Cold
##aste
sept
texte
dark
mini
312
Rita
305
sett
alongside
Paraguay
tip
leadership
Bern
253
##oc
Yemen
##cze
##pora
Gibson
##usta
##cza
Rotterdam
Late
mesure
Documents
Ya
##iku
Greece
look
Oro
##ğa
document
Hits
Bordeaux
Stage
Diamond
##nien
Prins
respectively
##tka
Cao
Andre
Insee
fell
##zor
##née
##oga
amour
isola
Politics
super
Istanbul
Total
gained
Nielsen
Drive
Week
##oru
difficult
mountain
GP
communities
Superior
relation
##tne
##rma
##itt
ranked
##sey
##pit
cannot
Toulouse
continues
estimated
Legend
Tage
##lea
##uru
Emily
##yu
##mbo
Honda
budget
CC
memory
##lash
fronte
combined
##lic
##vant
relative
Convention
territori
##ition
##lene
Wells
##ünde
gh
principalement
Ini
##zett
239
Raven
largely
Springs
possède
Foster
##drag
Ulrich
264
desta
227
responsable
Tel
artistes
hip
Portland
Tales
365
##tha
##kke
contemporary
375
Linnaeus
##eza
Devil
Hunt
hosted
appelé
Birds
##zny
importants
remain
##dge
agreement
##erie
##xes
Powell
goes
József
Ka
##nter
Carabidae
baie
Richmond
SV
properties
val
ort
##ít
##zem
Officer
tax
Eyes
ro
Ad
Harald
lago
avaient
Alberta
##rski
recognized
suivante
signal
##lung
##cano
Venus
##logi
##sini
aga
weight
outra
ait
roll
265
##room
mora
Ahmed
fece
yards
Industry
##uhan
##ellen
Portuguese
Kultur
Flight
Nebraska
growing
Castilla
govern
agreed
cea
##öt
##oria
liv
1773
Arsenal
##ots
##nae
presence
generation
##rdo
Labour
spread
262
##hou
Syria
Wing
Crown
##fat
Nat
compared
Tyler
Quan
Tai
Fiction
##gra
##elli
Yves
Annie
Work
Regions
228
##wing
##omo
##niki
Curtis
Chemical
##amen
politics
Jessica
520
##mond
Tout
joint
##oh
##board
##nata
Basketball
jam
rang
Fair
mg
##éré
chose
greater
##eh
reduced
##iy
capo
243
##uen
soldats
conquista
occidentale
comedy
occurred
##kers
##fs
resources
##lés
##gger
##rom
Teams
##dina
##cato
##fera
##lav
Normandie
##ders
causes
Commander
participation
negative
##î
justice
différentes
Otte
##mata
Around
Liebe
Conrad
Tree
233
##antes
Nei
Cohen
RAF
Nazi
Miranda
Schneider
325
variable
lai
Stadion
##rile
billion
cycle
voie
245
Denmark
##šte
lever
Kid
Literature
219
élections
Nie
claims
gain
1760
##nii
Madame
noir
Tiger
background
Ridge
##ugh
nominated
##cent
##ús
Soccer
##lane
naval
cal
Norton
driver
resta
##otta
paid
313
Leslie
présence
##hem
vera
Jung
Stories
##minister
Hof
1763
Pearl
##ief
##ři
patients
##ói
##star
Helmut
expected
draw
##key
winter
Orlando
établissements
##zek
##yat
Android
##uja
Buffalo
œuvres
mph
teu
Madagascar
Luca
Switzerland
letters
jeunes
##igh
Ziel
taught
##ahan
##alla
hinter
certaines
##ond
Kuala
marque
Hampshire
Ca
acres
ven
##isce
České
twenty
##onie
spring
##cate
humans
Stalin
Infantry
Native
##selt
Sr
applications
environment
audience
gisa
secondary
Bennett
##zone
Kosovo
Augusto
Server
##tul
Josh
295
suffered
bring
##gre
instruments
simply
colonial
providing
##yor
copies
donné
##indo
expanded
Loma
Defense
306
damage
##umu
##tati
identified
##tog
251
##eres
Emmy
##eris
##ew
Verde
something
##ops
Beyond
Match
Nassau
fly
Geometridae
entreprise
Palmer
Mine
##ij
Ghost
##ates
Eo
##ød
##ír
002
Zero
##führer
Romeo
Jun
##ël
link
graf
##naire
Glenn
##cen
Thai
Gloria
Darwin
locales
##rts
229
ap
##ydd
301
##rman
PTT
fish
terres
prof
##phone
restaurant
statue
##vara
##tés
Illustrated
##pper
beta
##dro
254
Edwin
Concert
twice
430
304
##git
Basel
Anti
Ela
unico
parallel
finish
receive
##cation
Germain
Article
##ště
actrice
##orn
vive
##ái
##atus
suit
236
Vera
professeur
Hopkins
Giacomo
Hai
##rida
Dio
Seoul
##ś
##bang
Josep
lorsque
violence
##lere
Father
Honor
Gérard
hop
architect
Ibn
Stefano
##tr
Bois
Intel
Kai
##iens
##ake
int
Tibet
Solar
désormais
Seu
Claudio
Track
covers
410
Companion
##tics
télévisée
##zzo
##iam
##stel
propre
Banks
IOC
##inas
##aw
hija
facto
coi
246
##dium
##dita
Training
##aries
Ella
usage
##ńska
begins
Gil
allows
Then
voit
Origins
Anno
composer
Bd
##lidae
Lucy
##zki
traffic
attacks
##ók
Uno
Rosario
Jews
titles
##verein
engineer
outre
minimum
##rden
hu
##dura
Fútbol
##lov
Room
Belgium
AFC
situated
##dí
villes
##inis
Want
##uca
Pascal
249
creation
kept
##iah
Eugène
Hero
Nagy
cinéma
Authority
terrain
moyenne
intitulé
Socorro
commission
Arabic
Malcolm
newly
matchs
UN
ceinture
Dawn
épisodes
Garcia
Palermo
Luc
deep
Gymnasium
connue
Saudi
Belle
Tang
Artist
Chem
reports
Alba
##ég
Beograd
##angan
Nathan
Globe
Félix
resulted
##ece
existing
Stan
portion
nuit
organizations
theme
Michele
##lada
towns
##att
Frédéric
Yeni
organ
camera
##stic
Upon
Tá
##tida
##jai
questions
orientale
##jt
wall
##ivos
Díaz
##anan
Hardy
euros
##uin
##liste
##eck
Nina
Julien
éditions
272
Comté
petits
unes
proto
##vole
Make
Orient
Advanced
resulting
Far
Patricia
##alan
Bischof
ratio
reçoit
legge
Guitar
Fund
piece
buried
authority
##graphie
##lek
conte
suivant
307
sign
Alfredo
description
develop
##zés
Vega
##dek
##tai
élu
##sida
orchestra
logements
légales
Beautiful
1768
Eugene
droite
Making
Nuevo
applied
coup
003
##toria
ty
Chuck
invasion
Private
Española
effective
##lä
visible
Luther
titular
Richter
seats
##the
learning
Martha
boy
Pa
fia
##tge
activité
##rja
arba
Nice
painting
reality
lieutenant
brigade
doctor
##ilen
##mmer
iTunes
##iker
IT
guest
##jk
gener
granted
Oblast
info
marked
##osta
##kta
connected
257
lama
rouge
##tern
##jia
##ffe
##mb
##halt
##nam
mata
vue
tells
surrounding
639
necessary
Honduras
Edge
MW
##uel
##zation
Range
inspired
##mic
##gge
Michelle
arc
Leiden
advanced
Lorraine
##hur
receptor
Baseball
groupes
Jeremy
##nds
##dica
##owski
271
##gat
courses
radar
Comme
safety
##pon
Berger
trad
##aat
##akan
principali
##IN
##itus
Academic
##qi
##arten
##SA
Nicole
Lion
Dana
##aten
Léon
ranking
tried
Que
##down
Sala
sq
Magdalena
303
bala
##gni
Start
237
Chine
completely
##ète
mandat
##illo
##tory
##verse
##chy
Continental
Terre
lau
tao
MP
ray
Jesse
Montgomery
fully
Vista
Omar
disc
##anu
Adelaide
vehicles
yard
sette
Maritime
block
333
rio
multimedia
containing
##eux
FBI
##čko
sides
plata
##rane
Marion
MA
wins
rejoint
UCI
##gno
##øy
teaching
Liberty
##iter
460
242
##bing
##lny
unknown
##nten
##ender
Tam
##hme
1779
Emilio
huit
obtained
scoring
confirmed
##gren
Munich
axe
##nci
nouveaux
Petra
core
EC
Angela
généralement
Royaume
Tennis
##mans
1740
populaire
288
vehicle
##lius
##lava
talent
methods
Albrecht
ore
edited
##egen
Communications
finalement
Dios
maig
injury
##ware
claim
##cono
Bien
Steel
rend
EMI
##ares
younger
showed
##vez
1753
Welsh
##dle
Günther
##nca
##meter
bord
Ainsi
285
unas
##jah
##stre
##érer
noto
euren
##eks
Jamie
baza
Policy
lès
Hay
##ï
Search
starring
##ight
troupes
disponible
##cm
CDU
##enn
##öld
Becker
fighting
visit
##lini
Branch
mine
translation
Emilia
##mission
##chia
Evil
Universe
##av
Dieu
Still
economy
##eon
Bratislava
Yorkshire
Guillermo
##quet
Sieg
Us
##ptera
SD
244
Testament
##awa
##itos
principals
limite
Chan
classement
labor
étude
Cannes
Konrad
Bo
##tand
Brooks
oldest
chairman
Tale
Flying
committee
daily
Battalion
CV
pair
##yl
Stade
Engels
household
##olt
18th
suggested
Ranking
Grove
Moselle
##unta
kat
##vati
historie
commander
instrumental
exchange
Alpha
##iona
Censo
dates
Forbes
315
bor
officials
Norsk
forest
pinyin
champions
Ex
Hubert
##rich
##odu
Wahl
##cted
Roosevelt
Bernardo
##rlo
##ána
##isto
facility
Too
subsp
Interview
##anja
Tallinn
unu
##agi
hom
##cre
tower
##zina
##mate
kai
probablement
Horse
##enda
arrive
losing
Lower
##rita
calle
##iat
variant
##rzy
trop
Herzog
girls
documentary
##col
Choice
Til
##tsi
seo
retrouve
Arabia
Shadow
##low
Chase
##ened
beat
##lni
Pologne
think
##put
Deutsch
chance
##ulation
Stanisław
critique
Ellis
Betty
matter
étape
rank
Vienne
historian
stadium
tie
programming
##iae
##hia
dis
hits
hands
WTA
##rán
lit
Auvergne
comté
vede
Rich
reason
dollars
DL
Flores
Giro
Ruiz
Duncan
##glia
##ście
Axel
fundamental
visita
##iran
##dum
F1
Amazon
GT
concernant
mental
247
chosen
routes
##sio
incident
Railroad
Eagle
##iment
theatre
##jak
Nama
##gor
Trek
##rija
lyrics
##sts
Deportivo
##unu
##cc
##orum
##rla
##bbe
Forever
Jupiter
##azi
Newcastle
##kach
1660
Hernandez
Jej
Mk
406
follow
##ête
##ph
1648
Lambert
Suba
VL
Vor
peace
DS
##graphy
##lán
composé
##dil
ove
##nais
entra
##sso
succeeded
##kis
Angels
Palma
Even
Jürgen
##iding
ama
arms
Kids
Snow
##jna
captain
blues
laws
Jos
##rge
##sée
Professional
##eja
##isse
xe
##graph
Guido
display
serait
Horn
centra
##tim
Porter
Croix
Fast
##cens
##ío
##ovo
##itate
##von
Noctuidae
##lü
bande
##rent
bonus
Évolution
##cci
medicine
Rang
peste
##ith
amateur
mix
Animal
Gulf
##ogi
headquarters
Ja
dele
Pokémon
Dominique
##asta
viri
##colo
entitled
générale
entrée
functions
holds
latino
décide
livres
Cristina
Fiat
##yes
Min
##đe
##stik
achieved
Stil
##rti
authorities
##hé
##rades
Circle
Titan
Jin
390
##mbang
quarter
enda
aa
Nu
##oan
heures
Ottoman
Thanh
inhabitants
##vei
Obama
allowing
Haut
1950s
Broadcasting
politiques
espace
Lille
Ada
zero
##ssi
##èr
Regina
depi
adaptation
passes
##sne
disputa
Sudan
Market
Vid
Filippo
273
##eran
fonte
cm³
Circuit
##fier
Göteborg
Amérique
##sley
unica
Staat
relatively
asp
sum
Without
Israeli
draft
LINEAR
Russie
fields
Nationale
##ceu
Crystal
airport
escala
Hochschule
##dern
Simone
266
ann
##aca
##vna
Sør
Section
concerts
solution
##glio
spot
créée
stil
résultats
Movement
utiliza
##bius
montre
##nces
Flash
anv
##quer
Christina
##rino
Chang
323
coll
identity
##cata
Wellington
##aco
Luís
Aviation
##quia
target
##öl
##cera
beyond
Eye
maire
##ex
268
##°C
absence
##sak
personnage
Several
steel
Braunschweig
263
imperial
302
needs
Hung
Walk
façon
auprès
Pavel
##euse
nº
fishes
occupied
Chairman
##rot
Castillo
Mill
Jake
neste
##ladi
##eter
Novo
Leeds
Adventures
##bah
Jensen
Beat
tank
6000
trees
Ghana
write
##pak
Scénario
Revue
Bogotá
Bonaparte
Berry
rapidement
Draft
rise
##nig
contributions
astéroïdes
##cket
1771
fauna
##rine
zom
Maya
Return
Guard
286
Dreams
##ót
##ined
##ites
pt
morning
arma
plats
brothers
##rza
domain
Tribunal
Manager
st
bands
quant
##arse
voyage
governor
Svenska
Igor
Low
282
Economics
Azerbaijan
issu
Consejo
1766
Laguna
##tine
découvert
fond
missions
supérieur
perform
##aci
1769
Crazy
frequently
##50
##sca
Cemetery
276
Hann
Intelligence
len
comptait
conde
Travel
bought
##ufen
##uran
moth
##xt
277
Brand
Olga
##spor
Philippine
##ID
Dieter
Antoni
clan
Clube
##gir
Block
sixth
supply
##sor
Bronze
##pol
274
##pare
occupation
Albania
1765
##ringen
Sogn
Ki
respect
Deutscher
Seventh
Papua
liberal
saga
##olla
Mass
dur
Göttingen
##pada
Things
##kah
##zko
Phi
##nato
év
Toyota
##enes
Cada
Paradise
##łe
Pe
holding
portant
Woods
##enburg
settled
##museum
Staff
Mayer
Salzburg
##istic
Aleksandr
Ti
##odi
brief
##vale
bé
ends
Münster
controlled
Herschel
russo
shared
vat
1767
pieces
##tza
celles
mente
Rossi
##eret
ending
LA
##ules
261
Tournament
##ivity
AU
Hendrik
Tell
##dice
##kol
assez
tua
##roy
##lim
##tava
##vista
Richards
##agem
user
aired
1650
begge
electoral
##dla
##onne
creating
284
annonce
gira
##tui
Neal
Réalisation
constant
Parma
##moto
cor
extensive
##mpe
##ody
Sidney
départ
posta
garde
simples
Kun
Richardson
##graf
maestro
##aires
Stop
##bte
##mán
Eerste
Pendant
Inside
281
Geography
tels
mark
##π
258
launch
470
chemin
Enterprise
convertir
Technical
##dé
##bir
Monica
Salt
Andrzej
Mills
Montenegro
acts
Ida
Ing
semble
##fn
##lal
287
##sburg
dessus
##bridge
personne
portal
##oku
##vere
Freiburg
testa
Status
Trois
capable
statistique
puta
Bradley
agriculture
##iau
comprend
hoc
##osti
prevent
##torio
Jeffrey
mah
##lant
pal
object
##vana
Fighter
Ph
testo
##fia
Milton
##hard
Denver
##elen
##fin
##bina
derived
Archives
Prior
##poli
Orléans
Brad
régiment
transporte
##hm
1762
##tki
##ûn
Comedy
enemy
##odd
proche
278
##nc
setting
##ñas
Nokia
##aus
Pato
birds
##ienne
gay
338
##war
murder
Bryant
##tata
marketing
rose
297
##dies
tyre
292
Churchill
arrested
powerful
Bus
économique
1764
Acta
Homo
##łu
Brisbane
Cell
Provincial
details
##kola
Trinity
Mail
##lín
##teil
Ultimate
560
Adventure
Bezirk
##phus
Norfolk
##vés
Romanian
rail
profile
CF
##raf
Zwei
Connor
259
Deus
parque
##eder
Dante
Leone
ideal
enfant
Picture
Andrews
Together
##yne
Train
##luk
stay
intérieur
Trans
collected
Moreno
##escu
##tini
refused
##acht
Sulawesi
familiar
Palais
##yard
##ović
debate
Bosnia
OH
produits
Tema
308
Vita
Johanna
MB
formula
##dler
##bund
##uso
##eru
permanente
particulièrement
Uganda
chemical
LL
employed
##rique
lik
interna
hot
##pad
Música
##úa
Dates
##ree
Rede
vit
321
Marino
éléments
évêque
Galaxy
symbol
##posto
267
Sociedad
##far
Moldova
category
##cut
##rme
269
contrôle
##ification
activités
média
Bailey
Kalimantan
fought
Rodrigo
Randy
vallée
##ligen
311
##há
##rand
Anglo
Airways
Letters
##aza
##llas
maires
Against
##familie
speech
citizens
yellow
Série
Quest
##nach
336
Antarctic
remix
##ulus
Ensemble
critics
##TE
publications
Rat
Singer
medium
Trump
Nur
approved
283
Architecture
Saints
Futebol
consecutive
universal
internal
##ček
Parc
Danish
italien
##usan
Gilles
reduce
Trail
Molecular
titres
Date
commissioned
##sul
faisant
noms
##dige
Isla
translated
Uppsala
Fédération
technical
##idi
offices
Lied
Watch
normale
tours
##enz
cens
compilation
performing
Negro
Creation
mineral
##raz
ri
512
fie
screen
Robertson
Made
Mainz
ICAO
Fl
Anhalt
bara
##tland
URSS
municipalité
##RA
##isht
centuries
ose
950
Lennon
Kenny
Bourgogne
##lí
Malmö
##vert
Pau
Maison
##oen
Henderson
##xar
##nner
##ank
##yal
##II
propose
##tno
Gay
Grad
Willy
compétition
Italiana
prop
gradu
Superman
mail
Morrison
returning
Lou
##ław
reforma
1730
##uren
Publication
session
Banco
bâtiment
Kinshasa
##wards
##hung
defense
##ror
motion
vidéo
Murder
sexu
bed
##avo
Beethoven
##ON
Bon
Ur
##hood
Fan
640
Yellow
Reynolds
##dez
Ion
Franche
Actor
Latina
gali
tota
##oor
intelligence
Championnat
suba
Caesar
Peters
##lier
molecular
Einstein
##vs
hp
abbaye
really
A1
Vittorio
Ko
trei
##lee
Stern
editorial
##rix
pH
##jala
droits
escape
##hang
difficile
monuments
oni
##rut
Blanco
##place
vision
##uge
planning
dropped
##hlen
Daha
Triple
molte
Need
Boyer
aged
sequence
##avi
divisions
335
visited
Trio
attacked
1755
Lynn
##chus
référence
345
Columbus
##inda
sections
##lling
##ead
Strasbourg
Montevideo
Khi
Floyd
##ift
piti
##uten
Person
##pole
##IP
modèle
316
##gada
subsequent
##gabe
grec
Abbey
##AC
évolution
Rise
Fish
PT
wiki
Oriente
Students
ways
émission
##kreis
aucun
AA
Claudia
Swift
Nine
Amanda
standards
represent
299
ind
##chas
##vine
Senator
attempts
Ni
1720
internationales
##inio
Dale
boat
discovery
##jung
classical
spin
Bio
395
##table
293
faut
funding
##try
Jaime
someone
describe
Piper
279
##ises
parole
Département
institution
Józef
Gerald
1640
offre
opposed
Tore
##sort
horse
Benz
broke
stare
##lka
##ked
##view
message
Heroes
gr
adult
hors
Rhein
Philosophie
Aquitaine
Rivera
##urt
##lée
fuel
Nürnberg
unable
AT
##tres
##rici
atteint
medicina
Jackie
farm
##aut
##rali
Ingrid
##mā
squad
##rke
Brunswick
believe
empat
Tan
##eke
Pass
edge
Rod
##xos
Monster
pale
##valo
biography
##pre
Format
##pra
##ntar
##rso
McCartney
selection
exception
equivalent
barrio
Elementary
##cou
Jam
nombres
Yo
##aos
309
ol
318
##gare
flow
Fraser
##pil
nations
particuliers
aspects
Français
331
##MA
##rop
##oro
Osaka
founding
determined
##iese
Aceh
##đa
Raw
postal
Gate
Ukrainian
Campus
324
Haag
Ibrahim
Glen
Sonic
signe
##ccia
Laboratory
Financial
##cky
##ress
retire
Faith
##eal
terrestre
delta
Friday
Ljubljana
##nay
demo
height
Jens
GNU
antica
##rende
mala
Telegraph
##gers
##tele
View
Westminster
Rus
Pri
context
Gerais
nomination
##hing
feu
gets
Volta
##tari
Derek
increasing
Ji
Newman
converted
##sent
Ages
Farm
ell
price
astéroïde
347
Fellow
educational
##sés
Drake
tas
HIV
difference
##kki
##ution
choice
selling
curso
##tivi
developing
attempted
##iven
##lice
divers
Corte
##IC
angle
Kiev
##lun
AP
refers
salle
319
doing
##tty
Amb
Cox
Every
Ignacio
criminal
Tre
##where
ambas
rede
##rike
##dah
Kill
György
Celtic
Speed
maître
Agriculture
chapelle
Aleksander
##xia
Andersen
Admiral
##ological
##para
Salon
##bok
Isle
peintre
317
lec
##tid
##vice
industrie
##cado
##gol
10th
dicho
enter
racing
Mus
Rocky
Labor
allemande
meters
##iff
Colonia
radi
Champagne
rating
322
Schiff
vient
##front
cœur
##dó
Christophe
Herald
1759
Wings
Sporting
factors
CE
##alle
##play
domestic
Raya
##eman
Sid
onto
totalité
guru
Sang
##edd
##rani
##ád
##voli
considerable
CNN
Polo
sal
sorte
##mani
Cricket
Jalan
mund
charges
affaires
##jd
Wii
occurs
collections
##nburg
Arrondissement
Disse
historiques
Bi
Electronic
##uir
##fra
pièces
##ob
##gata
conserva
##rale
Hello
equip
##tani
##lai
##fie
##smu
URL
Gang
worldwide
Sebastián
guns
##hren
exhibition
corona
provinces
print
situe
straight
##nch
representing
carte
UFC
satellite
why
291
##taire
Rai
arm
##zea
##gram
Infanterie
Cincinnati
shape
296
##hti
##sant
##gner
##cak
mettre
relief
EN
##huis
Vida
##mpa
##äs
focused
##bne
##dje
Saône
brown
Mad
orders
Crime
flat
Fredrik
dispute
talk
Nacht
values
##sze
Jura
taux
quite
Trinidad
Gun
spre
##vora
Jenny
vide
Hindi
##zhou
Monroe
wind
Lei
Édouard
##rag
##vus
lands
##him
ego
##rano
Rolf
##cles
MVP
influenced
##bana
Wenn
Elvis
##wand
receiving
Vasco
diameter
basse
independence
anciens
##sum
##cast
meurt
Rice
franchise
Homer
Sandra
greatest
orbite
Balkan
##bby
Filip
tunnel
Émile
colonel
##ndet
Kyle
##base
consisted
##uis
Argentine
MIT
Estonia
recognition
finds
negro
Ole
##rga
##lă
352
Zo
Indo
##sc
Nothing
##long
428
##rei
nor
savoir
Chu
##eka
##yana
Solomon
##rce
catalogue
constante
frame
vingt
404
298
570
385
Rotten
powiat
shortly
Stephan
Look
Nicola
failure
##ești
Palestine
ska
##hel
369
meant
Lago
attaque
1756
Reader
##porte
fruit
##nés
##lva
##utor
slightly
##krat
##plan
471
Judge
Defence
Thing
judge
carry
try
##vier
storm
##inos
Reyes
##eix
##uring
##mico
Jerzy
##xen
##kamp
Suite
Bear
connection
angl
##uva
##chap
Trend
##ngi
castle
RNA
expressed
##yka
##çe
Darmstadt
##ax
737
Sheffield
Suzuki
editors
mandato
##kra
##osan
##ω
Barnes
reasons
highway
Premi
##kala
##uck
##bly
Perth
Verona
comic
contained
##bl
##tych
fund
européenne
flag
huis
RCA
Caribbean
##lines
Hauts
Mohamed
Aan
bron
Contest
Emploi
script
mondial
328
Lund
Winkler
offensive
##ified
Vi
Vision
arrivée
Haven
Johnston
rear
larga
Mecklenburg
dom
##ril
Wonder
##rry
Oise
##rias
Blanc
##weight
valeur
##gica
Expedition
step
Saturn
1757
weapons
Gerard
literary
mando
calls
Mari
##lter
Weimar
##lado
Irene
blog
##menta
Present
##esis
Bertrand
##kti
Stock
Heavy
##reich
Truth
Bella
territorial
1761
Mustafa
Manual
Álvarez
faced
producing
Videos
backing
Trainer
332
Kraków
ouvrage
530
##ox
##tron
##cto
Elliott
Glass
establishment
289
radical
##yre
Count
##AL
Talk
343
##mena
Cathedral
##omi
##fon
buts
Ritter
adjacent
##zma
soundtrack
Salticidae
Nashville
314
##dja
manuscript
##dam
##ogen
Motion
powers
##vä
##hill
McDonald
##aman
##bri
funds
Moscou
Res
##AT
8th
Burns
##emi
##som
##witz
capture
Dorothy
INE
Marta
Brook
worn
successfully
users
kill
joueurs
##cula
MD
poetry
exist
agents
contributed
devenir
Nantes
Johns
##zal
##yce
Chad
##bria
##onda
##48
##hara
relativ
charts
standing
##ód
Nuclear
Harbor
petites
Lucia
ESPN
retirement
gela
Lotus
##enza
##nai
Ponte
##vid
address
##rated
Abdullah
Austrian
##hre
##edi
toward
tr
Porta
Hit
337
Chef
##nea
heard
##oge
qualified
##aient
Ernesto
##ison
Myanmar
Constantin
GB
Till
herself
publique
Woody
wil
opinion
Vale
Assistant
golf
cricket
wild
##maker
abandoned
##wali
Burgos
ferro
Reid
pun
##beck
##born
Tours
##leben
##asan
##zou
Kiel
17th
Nicaragua
Mao
bureau
serious
walls
PA
Alexandria
405
Ost
##tup
##rao
glass
gaf
##logical
Theodore
iron
disso
Manila
##zona
##tige
Lange
pur
Lara
Deputy
fines
Monument
poc
supporting
##rates
marché
Kao
versus
##esti
Mohammed
Chamber
tournée
##nov
##itor
Exchange
Timothy
##sien
reading
Metz
##edo
lorsqu
Eugen
Penguin
490
##ngo
##oji
Vincenzo
tur
##ève
##ily
384
##ğ
passé
##GB
Bro
plot
##berger
scenes
##anta
Journey
##mée
##hta
Mariano
apa
##cita
##rth
Euskal
##not
##eros
##tje
##ind
##yama
Buddha
Gottfried
ronde
Geoffrey
Greater
##formes
pace
Cornell
Matthias
326
Gen
option
evolution
Markus
sought
Janet
Net
meilleure
Logement
401
Mendoza
Hook
##oki
Artists
Bengal
Hannah
locations
##dens
reserve
Pereira
##US
##gler
Gott
écrivain
##hol
##motor
Bali
save
##nco
laid
Guerrero
rete
Piotr
boys
sp
Süd
##gun
##nico
Carey
vertical
mezzo
##horn
Legislative
designer
eye
1680
Versailles
387
Jamaica
WC
Jiří
Lynch
environmental
Nikolai
##urus
lettres
partit
Maxwell
Joy
investigation
Rouge
Players
contrario
##teurs
Dictionnaire
occur
Chester
turi
##mere
##cola
412
Pilipinas
Seconde
##hall
##fest
Parish
##tale
##sir
Zona
Occidental
Casey
Tito
devenu
##iation
chain
Corona
Kraft
noble
Fleet
##rain
pet
##lana
##30
393
taille
mining
objects
promote
dirige
##kli
médico
ménages
Brazilian
1745
##alen
vitesse
Oskar
##gil
##lone
Excel
dominio
incorporated
##lach
Paraná
##isan
Mystery
courts
trying
permettant
township
Ligi
##mene
Sy
##iras
cent
Turin
apparaît
graduate
Normal
humano
Pieter
1550
1754
##nement
##sai
Sono
trio
Ashley
Roth
prize
Mini
Milli
Using
##nare
Alban
##cial
ill
##cel
equal
Crawford
protect
František
rod
##ogie
Heat
##rij
Lions
##ssant
Joshua
##qua
maintained
##ligi
wave
##ital
CO
##gine
##ST
Midi
Lai
RS
northeast
teen
##didae
##lto
quinquennal
1715
Bandar
Indians
Austro
Results
Breuning
starts
294
Freeman
Medina
Oil
##tab
##reu
Campos
##borough
Hood
Militar
rat
Communist
##kara
soul
Chapman
segment
Monde
ponto
Burke
arena
##sada
ultimately
partiellement
device
cour
Split
successor
##ndt
##nil
Half
jap
deri
télévision
orbital
Thus
Critics
##ating
Eve
Péter
hectares
Wheeler
Ground
fleet
Arturo
##ack
Rex
Within
HK
##ström
passenger
weekly
romans
loop
##fter
pure
##eseen
agricoles
Juventus
##usse
jury
morts
##rai
##eny
Mathematics
aspect
355
##nberg
Tonight
proved
continental
pratique
##şi
1630
Sumatra
specifically
Zao
##mur
rich
Winston
avoid
decades
Greene
bald
natal
Construction
##alis
Somme
Gardner
580
##logo
Nils
islands
regarding
1620
Sándor
couleur
##uze
356
##station
Pius
statement
magnitude
##ț
367
strength
Though
Alfa
Kassel
##ems
##fers
headed
nothing
Mickey
roof
pièce
plutôt
Them
lignes
philosophy
Abel
##echt
entrance
possibly
racial
##redo
##umen
Brother
Presiden
##tato
Hearts
passing
loan
invited
##rp
views
1710
Memphis
##pati
compete
Oswald
Nicolás
enquête
##card
Prag
610
PP
Tradition
Carroll
Rush
425
candidates
Slam
##iak
carga
Lê
##maya
Jong
merged
theater
Whitney
Salamanca
Paulus
educated
##reo
Strange
ach
officiel
##ési
Rand
##position
##iner
Camera
##twa
rosa
compris
##udo
##olta
Musique
mention
Pere
Midnight
Resources
assistance
dor
##sser
winners
##iler
1748
plaça
Isabella
354
Student
Schools
##wich
Abd
##nese
##unk
Rue
heavily
Sven
##isin
firme
##mber
foundation
dating
16th
animales
##cara
##eca
357
Australie
célèbre
manual
derniers
##rid
Vuelta
mines
##vod
kara
foren
##zze
establish
Erebidae
corner
trained
##bed
Into
Brien
##polis
Essex
Sally
maso
##zda
files
Agnes
##lân
##right
##oid
Interior
##wat
Physical
Joey
antic
Alger
sil
freedom
kor
registered
string
Kabul
Classical
ene
sel
##ppa
italiani
destruction
walk
747
##dai
speaking
dro
accès
##wall
##iaceae
Prague
Donna
Oliveira
##master
##gard
Bilbao
Bukit
Kampf
Gustavo
Athens
Bandung
STS
##lund
Penn
representative
Gill
ponte
##ñu
##cana
Alexis
baron
##had
Av
cabinet
##ED
leg
Recording
colore
regiment
Elles
resistance
##berry
Dietrich
Smithsonian
416
presse
wood
Panzer
##vite
Bart
inscrit
Hernández
##old
Visual
Brno
futur
##fur
Levi
##uts
##yet
residence
tons
Fr
Municipality
personnages
##OW
Ramon
Wald
Armenian
##rait
Cry
sols
Problem
Auckland
329
Editor
##heter
##kkan
Stones
13th
Ch
##ála
Bates
Desert
prise
##DS
##vist
heat
334
viser
Dortmund
wir
Waters
Percy
Lenin
Typ
##ivu
Drug
camps
ADN
Rhin
Challenger
br
improve
##ydi
contrast
mariage
Doug
Frances
Baru
##mbre
##gara
##ifs
368
630
Self
contrat
Gone
##enze
error
##šo
Fight
entirely
Lopez
gaz
présent
11th
##NG
501
##tano
engines
Frost
##box
Joint
scheduled
Willie
Petrus
acte
##tā
Blu
Perfect
##mite
bodies
344
##rial
items
Bauer
Ley
insects
fusion
##cil
##aes
romance
##eln
Queens
Webster
##tier
observed
malgré
Genève
rooms
Explorer
actives
pilota
951
armed
experimental
##ids
pool
uten
##sper
reaching
aucune
##rest
machines
peak
toma
Rainbow
seems
##itti
ethnic
Alma
Tina
Arroyo
casu
duty
sécurité
327
hundred
##tna
killing
Hip
##rons
quatrième
qualité
##mand
Ronde
##17
Tech
stands
##lev
utilisation
##onte
looking
proper
Graz
Nun
seconds
##rig
1751
skills
##rez
operate
Thunder
limit
Stella
##ear
##quée
interne
##mun
closely
elas
##voir
consisting
finishing
Strauss
##grada
Révolution
##ilis
Word
Marguerite
mon
engaged
components
inclusive
##vol
411
Cu
principaux
##stri
demand
##sid
inch
installed
##lder
Delaware
Romance
##utan
##yta
Bowie
SG
##inae
##lyn
didn
Table
Luftwaffe
Latino
342
##tni
1707
olympiques
451
##gene
Basic
Diane
gouverneur
Giulio
Bolton
attend
Riga
brain
opportunity
instance
Ramos
Fly
mig
watch
##grad
351
HTML
costs
##dés
bill
Blackwell
##itaire
12th
##lique
propaganda
vald
fest
##olu
##lino
Heights
Serge
##dition
Kingston
Manfred
papers
rolle
Vainqueur
café
##vette
alias
Boulevard
Bahia
##hart
Style
Zimbabwe
revue
twelve
##stro
Slovenia
voted
moyen
##vest
##âm
pu
Rail
tel
improved
Drew
Hamburger
Environmental
Goethe
##ians
1714
##ivat
Egyptian
Anschluss
Aurora
Dee
Kara
##rón
Massimo
agency
passer
Tomás
avo
Motors
1580
##bur
##ners
##kkel
Quinn
flying
Lionel
Winners
Fou
dura
##wyn
##dl
##weit
Alive
causing
°F
pad
##simo
##pense
ceremony
601
##tros
Progress
Towns
Porsche
##ijo
Care
Tribune
martie
Formation
singing
1741
Touch
339
##gai
Mallorca
persons
##tima
Karnataka
Hammer
apo
Brasileiro
##nei
majorité
fe
Walsh
flora
Logan
resigned
bottom
drawn
tatt
Bangkok
milli
describes
reform
Essen
laten
##ister
##unto
dollar
advance
unor
Nem
Taman
##çu
quitte
belge
capitaine
Lot
Macedonia
##etes
Alman
severe
Mick
##ography
jeux
valley
##club
crise
Everything
chansons
leads
##gur
##öz
empire
Gas
getting
##ngs
exploitation
1690
Coruña
##chem
##pic
shaped
##mot
vite
empereur
presque
Gunnar
Strand
earliest
##mare
Vermont
ruled
Webb
tests
##mh
Blair
##spel
Qatar
##sil
##pal
regarded
Katherine
##rete
lire
##sam
Laurence
termina
sujet
animation
constitution
Padre
510
initiative
Better
##rone
Christie
contribution
##bula
factory
représente
NK
##inus
Wade
Mo
malo
moitié
Croatia
cable
jau
##ït
Hassan
##yti
plane
1930s
Dinamo
Martina
Hoffmann
falls
stages
easily
1752
dre
n°
Kristen
artiste
survey
Arms
Heavyweight
musician
Judith
##hire
Estadio
fashion
employees
Aviv
##neb
AE
Conde
branches
9th
##RO
Sand
Teen
api
##chung
northwest
lateral
##oss
Joyce
##iec
##olis
##gile
##qa
combination
Battista
Wehrmacht
haute
vaste
planét
Rhodes
Preston
distributed
Blanca
Peninsula
##vada
catholique
Indianapolis
Moritz
Past
Personal
Portrait
Palm
##lden
Laos
##lau
##atie
historien
##lf
infanterie
reis
Anita
Vigo
##aris
##vida
##elles
##lid
supérieure
802
Lin
centres
##fic
Junta
##mbe
##ams
Konstantin
Idaho
##ichi
Factory
accord
sung
1735
##ail
Terminal
Pre
Dubai
1520
##chis
député
##mor
##yy
USB
Ei
transmission
Avenida
##cian
##smus
##ibus
mêmes
mur
alba
##uw
##eller
##lato
##tl
Image
525
opus
longue
behavior
##ïda
##yra
##éra
##rose
Wort
486
##quin
Romero
Beauty
Left
##tun
pierre
Guest
fri
##dors
625
1610
Savoie
agricultural
##fié
##lida
Dar
Lancaster
##kup
##jel
353
tribunal
Armada
Medieval
Rider
massive
Burma
ond
381
359
##mpi
Eden
ket
Genesis
indem
Hop
distinct
1689
definition
wake
Somerset
##tius
##beli
##cine
##teri
Compagnie
hired
paintings
##lp
##ched
Cesare
##arre
Higher
vast
kaya
##tara
##zana
##kit
proximité
Luciano
##iol
##burn
doivent
##nius
Warriors
##oren
Windsor
énergie
Lucien
Meer
argued
##tana
Valladolid
Bari
Chapelle
Airbus
Camille
##mera
gestion
Cher
Much
Sharon
rap
Joaquín
##ury
Glory
Wong
##tner
Cities
élection
##sement
1670
##tá
kis
opposite
automobile
##inge
##lski
Hanna
363
366
enseignement
représentant
Lily
Concerto
Mediterranean
ahead
##dna
##istan
##mila
##inte
considéré
Riley
IGN
garden
1701
humor
suicide
##lge
weather
1742
383
##ctic
##holm
participants
secteur
Canyon
Roi
ones
cop
##iq
Mega
##yki
##rl
Dari
arrière
##rito
##ability
médaille
Goes
reaction
Familia
writers
##lika
361
##pone
require
construite
BK
aria
Chambers
417
stating
##izar
bras
Thierry
##bart
publie
Aisne
cousin
Ek
Mama
##udi
Ordre
termes
Edit
##run
Accademia
indicate
##lno
720
documentation
##eim
##irs
Elias
##EC
Veracruz
carica
cité
1743
##orio
metre
carne
1688
Jena
##uras
fiscaux
decade
Shin
îl
##sima
idée
##pé
défense
Ako
##rais
Hayes
update
Sandy
##lá
Structure
##nies
régions
prove
##rick
407
réalisée
commandant
Príncipe
Palacio
Qui
680
Kristian
##hun
plate
1746
Eure
Hey
620
Paper
Iris
##alia
341
Caracas
transition
##nait
circular
007
##wert
1713
##IA
Oy
comité
titul
starred
Ming
Biol
secrétaire
##rona
##BA
seigneur
contain
1683
stores
##deki
##lten
fod
WWF
royaume
##rva
##sted
476
1749
Natal
interests
##anya
Tomatoes
dil
UGC
##mou
challenge
syna
Canterbury
Memory
##nor
Agent
alcohol
territoires
mir
##jian
injured
porto
gens
##lers
Chess
Something
mean
##itar
AIDS
reas
##lock
##lib
Médaille
Clay
Metacritic
joining
B2
##bene
590
403
côtés
Kerk
1723
chargé
Gregorio
maju
Male
432
Programme
##SC
exposition
##eki
Gustaf
Innsbruck
##rach
Cola
tenor
actors
431
gender
broken
##otti
Referee
##ouse
1747
##zig
shall
##vt
actuel
##ctive
antico
##onan
##haven
Fighting
##evo
1744
Million
tall
Marianne
##uelle
Operations
Gardens
cei
chaîne
Wesley
pattern
##ark
Instrumental
##hra
affected
reçu
##gment
##nów
Liège
##sht
15th
possession
##tsu
sell
Sister
Andersson
biggest
465
IEEE
1721
Asie
briefly
IN
participate
Sparta
VS
##rene
Baba
drop
##jeva
Gaston
Annales
enam
##lise
conservation
456
##DA
Martins
Classics
panel
##pass
ago
Said
##rto
Audi
Ferguson
Environment
Milwaukee
##kali
##mista
##cov
Horst
##hoff
defender
402
Hagen
Arc
##zim
Sing
DOS
Zeus
##ener
Fi
1492
Give
disa
presidential
peuple
##ption
travaille
chant
##erse
##mee
Viola
phi
reprises
EE
Relations
423
Nixon
séries
##uil
Election
##ffen
Madeleine
Thor
##odes
catégorie
##vig
##AM
Aïn
Benito
##vise
Viking
##TS
MiG
analyse
hôtel
1530
##sport
##kowski
Lur
##ogo
Phase
Maximilian
Hasan
##wska
##eum
##arte
eso
classic
Baptist
pied
##face
##dda
sah
fonctions
protest
##anos
##lets
musicians
Learning
Tri
Beverly
represents
##ppi
Belgian
##rova
Giants
##rup
##sina
vent
Protection
lima
variante
Underground
##tei
##rki
Inn
1718
dominant
appelée
Hebrew
528
Evan
esso
Territory
348
AK
tournoi
Bourbon
statistics
##dant
naissance
operates
constituency
purposes
##NA
##tadt
##pul
Formule
Turn
##tero
##phila
Moses
alliance
picture
soli
##sett
1570
agar
##wia
typical
##eis
##lei
##mates
Nov
songwriter
cultures
##igan
bak
##EA
##ités
##page
dry
southeast
##sland
Groningen
1540
##kum
##won
Twin
choix
1667
960
pick
Independence
##smith
examples
Stad
bout
argument
##bine
reti
##æk
Attack
##asti
Biological
1736
artificial
##br
##ways
degrees
1603
##nate
##jam
colors
diz
435
408
notably
376
Fear
carbon
Erwin
Oak
##nha
##alta
goods
operator
Won
##nol
regularly
partnership
robot
##eme
1727
crimes
##cile
Karlsruhe
attached
prese
1685
8000
oral
##TP
##itis
roads
346
perhaps
Isabelle
sao
1560
siècles
Hour
passengers
Color
Chronicle
neighborhood
path
##pina
credit
calling
Well
##ush
designs
364
survived
##rog
Chance
Tall
Finn
##dak
Ajax
Toni
670
enfin
Café
santé
##tasi
concluded
Samsung
##OM
Olsen
1725
1632
##pera
##blatt
1711
statut
##11
Leader
Tracy
output
##sty
##fre
Peterson
dens
gamma
Iako
understanding
Jump
false
replace
anniversary
##nni
islam
Audio
Manitoba
iPhone
##eira
Boden
##IO
Lives
Read
longueur
Irving
seventh
##richt
386
##llar
Dancing
Gard
maintain
1739
cita
##ddi
Willis
underground
naturelle
reine
Animation
trans
deed
##ager
1642
##mini
379
##top
362
Poco
##lega
Finnish
##data
##ances
Vargas
Very
determine
##sque
##má
Current
personi
southwest
##16
accused
trip
382
Dem
Kay
NS
autora
##hair
classé
##teli
Luisa
Larsen
Wei
drum
Initiative
parla
##ān
Calgary
Trondheim
373
Level
##bras
programmes
##sert
turns
Bolívar
Elite
Cancer
##work
dispose
noi
unité
nm
Morales
##bird
##ôn
Comic
kin
Napoléon
Purple
##sive
1737
Sugar
##pidae
Material
660
SMS
##isant
371
Cecil
PhD
Marek
##jang
request
##tici
strike
Brest
Outstanding
painter
##15
Hull
A2
Parmi
##inal
actes
Nouveau
Registrar
1724
Economy
HP
Durham
showing
378
Grote
Brandon
Cheng
1654
Alternative
concentration
##md
actuellement
intérêt
hul
##blad
Griffin
BAFTA
##sian
##vai
1672
scientifique
Chapel
Lausanne
rien
actuelle
delivered
##even
Dès
Cairo
##tam
##lement
##tives
##pha
Combat
##tian
contest
##fice
militaires
Eagles
##pot
##IT
Commerce
##cro
Alegre
Marian
429
Oost
##tles
##viste
##rje
349
Edith
stem
##ogy
##éry
DB
videos
alpha
409
##zm
##kea
secretary
##idor
##agen
plante
Tomorrow
7000
Cassini
##dose
##wl
1709
414
##graphic
##lera
##jera
Impact
Springfield
1722
##ané
plein
1728
soprano
358
Má
Behind
Masjid
##chos
rendre
##vir
entreprises
masse
Broken
faible
##ulated
##ncing
##jö
classique
amenities
client
Pisa
solid
##ijn
Carpenter
task
Rules
Schumacher
ASV
businesses
fixed
Representatives
Punk
##omen
Sous
Béla
Volkswagen
##rious
Save
vont
landing
Emanuel
##bbi
Label
littérature
##law
convention
##rena
IL
lar
##hai
Gibraltar
##anas
999
##èra
tag
##pico
##riva
##cea
##quant
394
427
Orthodox
virtual
##oke
##zym
Mons
Newport
##wal
##tain
chun
autori
eut
##iver
purchase
##hne
driving
Carnegie
Conservative
399
sec
credited
verdi
Mode
##lou
1733
Dirty
Chili
Wimbledon
investment
##craft
residential
integral
indicated
linked
##unge
Serbian
dî
392
Pole
Benny
Banda
Folk
Bibliothèque
##cosa
Gora
Turki
##cidae
seal
utilisée
painted
neuf
Herr
Sophia
sert
feel
moteur
apan
##icia
Saga
discipline
##AS
1661
Ride
Treaty
Bravo
ev
##icio
##ced
Card
Borneo
Proc
Senegal
António
lawyer
##ković
##ivas
Killer
Montpellier
##body
##fold
McLaren
##nez
Ladies
475
##ieri
royale
tries
##40
storage
syndrome
advantage
devices
Borough
playoff
Break
spire
Jeffries
extremely
Olivia
Besar
fondé
eyes
##wicz
##mane
participa
teachers
##gau
Aiken
tren
Marcelo
Yugoslavia
guitarist
photo
churches
Psychology
Haiti
romaine
committed
lance
qué
grounds
arra
Working
impossible
rates
schema
concerto
arabe
453
Tak
##oner
1590
moda
WM
Falcon
##atz
691
##gled
##sby
##brica
##bling
##away
Juden
charged
##naires
permis
##gave
Edmond
1732
couples
Neill
SF
##iles
mercato
Baja
Fleming
##eles
Keller
##ucht
##vka
litt
returns
fondée
testing
##ils
Marilyn
nomina
388
premiered
Gandhi
GPS
1598
Pi
##cino
442
Oakland
ouverture
Coach
Unite
##FA
Faculty
Antônio
gi
Mumbai
sculpture
systém
Capitol
cun
Mata
911
Vernon
##nnan
##pter
defensive
1717
frequency
engage
Cloud
Gaga
praised
14th
probable
lieux
21st
Quentin
altar
régime
##szy
Trevor
##AP
mye
appel
Sussex
Armand
Morton
stable
Pol
Essays
owners
##áz
##sem
##forme
Pearson
Valentine
Lumpur
Tübingen
##ccio
ott
##rell
EA
langues
##dido
component
veut
Víctor
poverty
Có
##tama
##lex
Br
Allmusic
kim
1618
397
protected
sl
##ater
##sins
##gian
Finance
Dirk
Fourth
îles
##chester
##gga
##mik
SSR
voto
lap
accessible
sed
visa
Quand
guida
Hold
##ably
subjects
1708
Ra
policies
##avat
pain
Roche
Pierce
Peña
autant
reign
Noel
dimensions
1704
Americana
666
Silent
traité
377
measures
patient
HBO
448
##nale
##serie
coupe
##falls
Hidalgo
pape
##ulata
Core
jouer
Shirley
installation
Tigers
entertainment
421
##gea
372
Reina
Yahoo
pittore
##ieve
MG
Guru
typ
##phon
Kumar
##rro
##coming
SH
utilise
KM
1625
tableau
##rator
Catarina
measure
hauteur
dynastie
##oak
1250
Verdi
##tch
422
franco
##ovia
Marathon
Wiesbaden
##ateur
1621
##uche
Reis
##cier
linear
455
Avant
##neur
Lena
Garonne
Leicester
Safety
Fields
##esh
##ål
Griffith
bonne
montagne
interface
Boot
Medici
Communication
1699
Noël
Sahara
##mant
Sisters
A4
##uire
##IL
iOS
server
##mps
poem
Crisis
identification
publishing
1734
Würzburg
Victorian
NSDAP
pourrait
réalisateur
fired
Ruby
théorie
##itie
filles
374
Zamora
Protected
Rabat
Voivodeship
##erin
Arne
Fletcher
Ito
1738
##vern
ide
assembly
##udet
Maggie
Siena
raso
Chor
##kko
Puebla
##şa
##oot
Dewan
Moss
##BC
##nko
RP
shooting
##vare
vin
##sine
##ope
mali
Meyrick
Raúl
##bane
##fire
fai
##elis
Gates
Lazio
##vage
Support
Brief
##alde
##yna
Mussolini
Actress
Cabo
Señora
Adler
damaged
##vila
Donau
Jenkins
##SE
##ood
heritage
Kerala
directement
Schwarz
window
vill
##ritt
##GA
meta
composée
derrière
##rite
##sund
##uko
##gruppen
saisons
shop
debuted
energie
##rtu
Savage
sœur
Coming
horror
##nell
##nton
Issue
Phantom
dam
novi
##maz
wounded
consta
movies
473
##usz
guitare
Ham
Cardiff
CPU
officier
##char
professionnel
fragment
coal
##hale
musicales
loin
elf
carrying
##cts
Sharp
Scots
processes
quay
mito
##iono
Baldwin
1703
##hic
Grenoble
earth
##quier
Musa
fantasy
atom
Venice
##vra
##abb
Piazza
alma
Ronnie
define
##dā
Ferreira
##wehr
donner
##dot
##ull
##xu
Poetry
locali
Homme
Reims
413
Sedan
podium
V8
portrait
nav
restored
continent
Based
piazza
##gée
cai
##OL
joué
Brescia
requirements
Kirby
Drei
Françoise
filled
Organic
##lju
ros
copa
Manufacturing
stood
pos
cappella
differences
Marius
Feel
1675
Guadalajara
Falling
wilde
Victory
##geber
verse
Scotia
Alicia
ord
##illes
Wave
Loch
économie
Salem
##uba
conseiller
Jak
Than
Salvatore
Vanessa
affaire
##ssent
res
physique
tonnes
##iato
##āk
Coleman
responsibility
Lama
Gent
puissance
##kins
marcha
pena
hosts
##lur
##RS
forêt
Mon
partial
authors
départements
separated
##eries
chapter
frères
##onn
##ondo
learned
1521
Sylvia
militari
mol
##aid
variables
1609
Boca
Shannon
##vention
rejected
missing
observations
Romana
##fod
Kui
##bh
##pse
Cornelius
Junction
Vic
requires
Moyen
Female
##csi
LGBT
Saskatchewan
arranged
1702
architecte
RAM
stress
Giant
Fontaine
Sanders
Mirror
##bí
Olympia
Torneo
Wyoming
Freud
##qui
Being
426
##inan
Dixon
Communauté
Charente
Perkins
nomi
passant
Pratt
gris
Vest
Methods
##emu
SI
1666
##baum
membership
604
referendum
##lech
Filme
1605
sm
Lie
Primo
otherwise
##ink
1697
dated
critic
Welcome
469
##inar
##post
copy
rapper
manner
Campaign
bâtiments
Ser
1649
Hari
CH
##dala
Associated
rapid
##vation
1450
##edes
caught
tribus
##ices
##rgen
driven
illegal
##ester
Herrera
##HL
##cito
réalise
Santana
##íl
##uki
##laze
eaux
perspective
prepared
pia
hiver
##ément
Mannheim
mét
##hor
Agustín
D1
##mada
##èle
bishop
frazione
Grade
anna
##zano
soutien
Easy
##amo
courant
retained
Acad
bomba
assumed
hardware
##ssion
##14
##icy
Hesse
##force
VHS
Wildlife
472
Stark
Terror
Poznań
Blanche
Jet
Timor
1665
toutefois
##izing
créer
accompanied
1712
numéro
##hain
expert
Vocal
Alone
Bombay
heel
thousands
planes
##dine
venue
Close
Fin
anar
##ége
caractéristiques
BA
faculty
508
chair
artistique
##rco
##used
resolution
##ying
1635
Groot
Veneto
##ndre
##kari
quelque
Mohammad
Lebanon
Anime
françaises
giro
##maq
##wu
fallen
Lig
RFC
Mel
389
homem
CP
##gence
##czyk
Higgins
tribu
archives
##rau
RC
##jul
belle
##suke
##dze
##esten
disciplina
1719
windows
concours
GM
ski
Parlement
Karol
suggests
baby
Bradford
mieux
Guild
##ître
Circus
intervention
##eed
triple
Direction
balance
seront
Devon
##cit
suivi
Estes
Release
popularity
##cule
Yuan
Holiday
1655
##vania
Buddy
cards
Johansson
Cecilia
IS
1525
Beast
Partit
premiere
brak
ciel
##dri
diesel
Mio
essi
##njo
Schutz
Tourism
ov
Cool
Friend
##rve
Philips
##color
1716
arrangement
duties
##posa
dirigent
Industries
daun
arrival
Holt
464
##orte
Autriche
396
demanda
##nst
capa
##stil
##bru
##ruk
##yx
Access
progress
518
Natalie
Weiss
Paramount
1572
Ant
##čar
##toi
bits
##cra
objets
Bey
admitted
maintenance
391
Colombo
involving
Holly
##nade
couleurs
##ôme
##turi
Erde
Beta
significantly
##isée
hr
1729
thing
drugs
Rouen
Augustin
meets
Shane
##hima
1643
Meuse
marina
eman
espagnol
Wert
pang
Soon
spor
Casino
dynasty
##ntu
##imin
arme
##onde
Buck
##wé
1658
##uny
Ricky
##court
##fish
##dha
fil
percussion
##cteur
Didier
textes
Yi
Marin
##rsa
Tucker
parliament
sér
evo
##tot
505
Toro
Letter
##istica
cili
roughly
Along
##yong
1731
Interactive
##zam
Nowy
skin
tali
Bere
characteristics
##apan
Brain
voïvodie
Andrei
Globo
Málaga
Ballet
nagu
##logue
favorable
orchestre
reeds
Roses
760
424
Punjab
Brabant
Rhode
Clarence
##udes
Seth
##mum
Nigel
##iks
Persia
##rats
gate
hus
##uela
Yes
##plex
Gallimard
##rage
inspiration
446
Monday
Principal
Molina
##rds
journaliste
experienced
1706
##riff
##holz
Nas
leva
longtemps
##versa
Aston
##oll
Villeneuve
##hit
labour
Barrett
problèmes
infantil
circulation
Troy
##nnen
ensure
Tobias
mémoire
##ridge
Ms
alam
Annals
Henrique
legislation
Voyage
Plymouth
Winner
Northwest
##eras
##ggia
##boy
##ély
hair
Campania
graves
insan
##ejo
else
1536
##ardo
##lut
##ngu
Rising
adapted
relationships
##gente
##nimo
Scene
##ège
511
Ace
portes
##egu
Andes
1629
Álvaro
1526
##ript
Alors
Hooper
associations
interested
##zare
Hoffman
keyboards
##rill
Pretty
strategy
tombe
penalty
Jordi
##abe
437
Holocaust
Legion
Strong
##bei
stopped
##cole
##CD
senator
modified
assist
tools
tribe
Mexique
amis
resource
Additionally
1645
499
Nicolae
priest
1634
##rante
444
Petr
Augsburg
Colegio
Haar
Waffen
phone
practices
1705
Carles
Jiménez
punct
##usu
coalition
crossing
##lein
forming
Veronica
Visa
Zoo
Rapid
traditions
scholars
Claus
##hle
445
##bano
ROM
Handel
##urance
soil
##tler
Gustave
Livre
depth
grant
Brésil
Gare
1726
WK
1676
Bosch
MV
Guadalupe
Languages
wet
novels
constitue
Calabria
Christi
Davidson
Screen
##hand
##aldo
438
mont
Rahman
commerciale
genes
1622
animaux
cat
cited
##anto
Suzanne
##kler
presents
universities
AJ
##atur
counties
##zów
Massa
victims
onze
scheme
515
##ovna
crea
Noah
Drosophila
##sik
revised
Botanical
Rivers
Brussels
intention
##mara
esprit
##ching
patria
threat
##warte
Leigh
flows
Judy
##AN
##bud
column
Cal
Recordings
Complex
##lab
Cash
Jabal
##tsch
Diocese
Albany
##china
emploi
Knut
habitual
testi
Freddie
Marsh
coastal
1623
Samoa
Marko
Tunnel
##cko
##ception
Blind
441
1664
ownership
soccer
Ver
armi
Mia
sees
##itation
Belfast
banks
Gut
spoken
1612
découverte
Buddhist
##uais
Clermont
dictionary
1656
##nibus
taxa
reporter
##nosa
##aru
880
##eil
Assemblée
1086
Botswana
expedition
##nthus
divide
Toto
##uwen
orange
Rothschild
narrow
avance
io
Calvin
##nul
##lton
Zoological
dual
Artur
hill
Lola
Primeira
Dover
1638
rectangular
##onu
##mens
Observatory
Legacy
cup
Medi
##dka
##mium
Veliki
##bak
frontière
Und
##HC
GO
##anna
Lonely
Spears
##graphique
organisations
minuti
speak
##uant
dernières
##nsen
tell
##mination
##tice
##tista
Factor
##üt
Papers
vols
##sei
Zhou
##nana
chambre
##gla
slow
spirit
##ulaire
Industrie
##elet
Nero
Transactions
evi
Algérie
supports
Bismarck
forests
##rok
Detective
avion
##thus
##case
Hyde
cold
963
Randall
diamètre
##theater
Karin
replacement
##vide
colos
discussion
##eze
418
revision
NET
Guyana
Nissan
concrete
Step
bomb
##posta
##cée
##anne
Reports
##ucci
##wes
Idol
Mongolia
Galileo
##gong
inscription
japonais
##lita
Anglia
Sue
Lauren
1652
acquisition
paroisse
sélection
Virtual
Pilot
##cup
ajo
##cot
##scu
##nich
TSR
piste
##dell
485
##gonal
devint
Iranian
Mancha
freguesia
Santander
Reviews
ois
Rodriguez
##tude
##fil
productions
##atura
Lucius
paix
##vins
Václav
##landi
fun
judicial
covering
campagna
artistic
photos
##rish
Pirates
peinture
revient
Carla
bene
broad
ministère
##mation
Eu
hala
##fly
selo
illustrations
Manche
stream
equipped
Suárez
Tomas
1682
##sdorf
Hammond
plateau
Gutiérrez
Huang
##lki
##lais
##system
Leningrad
Sm
vas
##urin
##meer
##eso
##dino
Pier
##usion
##ache
##mea
##hoe
Renato
Christianity
Until
bot
##litz
streets
Kyoto
##anda
darin
Jacobs
Quartet
Reagan
##tral
perd
Glacier
Ramírez
##chs
##yos
coro
608
palais
dada
playoffs
reprend
Summary
##IM
ici
Gore
Gould
Originally
##bian
##uste
regard
Cork
Concepción
Lakes
Siege
Ever
Anniversary
Mathematical
1651
##ctions
Dawson
##uté
adults
cd
Alte
##rido
Mauro
Org
##rton
métrage
Gia
##FC
frei
Mey
##dder
Poems
Dong
huge
bianco
evening
##leti
Edmonton
alter
##hora
##gic
Conan
##bna
brick
coverage
Rally
452
##dian
tro
##sle
épreuve
##lha
##kad
##WA
Siemens
Criminal
##bien
Reform
devait
inches
diversity
mouth
Ariel
downtown
Knights
nema
##mona
conductor
Lindsay
sun
780
Mid
beautiful
Jacqueline
##dau
binding
##itan
##shed
grow
Niels
##wig
Hawk
##gny
Gram
propriété
Esti
mesures
offering
Bavaria
Marso
##dida
##kot
Rennes
stayed
##chet
institute
pg
Hispanic
Fabio
criticized
##siden
##jien
##ndes
reprise
extreme
Hank
Attila
##weis
1350
Texte
Former
1493
##tional
##avia
Steiner
419
Syn
Adult
ready
processing
Hydrogen
Louvre
Keep
defeating
éd
Rancho
1585
Johannesburg
##stor
heads
Gazette
##dero
décrit
Melissa
##uve
##ît
1616
spiritual
##ME
Gods
##ksa
Gaza
Goodbye
##cules
raise
Piero
Going
Kuba
restaurants
##stru
1569
Mariana
##haft
Bert
##rns
Esteban
Indre
##cision
Satellite
dea
Wilde
496
Planets
Nora
##inne
##lec
##bilité
##jord
Naples
liberté
grown
everything
Nya
restes
maisons
essentiellement
##â
##scope
candidat
classified
Ortiz
BD
Israël
Łódź
boundary
anda
##áil
Oberliga
Cliff
##bila
##úc
##folia
Ruta
Fiji
Dolores
##lien
##kek
##test
pré
##OR
Potsdam
##sies
trouver
Socialist
movements
childhood
waters
1627
squadron
Byron
##eas
Brock
concerns
##gade
powered
learn
Engel
1385
Heath
##ené
##çant
grond
Martino
colonia
1662
##ôr
Cherry
arrêté
sprint
Fabaceae
celebrated
Pio
Logo
trés
##rath
##wijk
##reta
Writing
complet
Tadeusz
CM
Cela
Rama
Spania
##mien
Habsburg
##tora
##tage
crash
resulta
tied
castell
Große
Roberta
Sergei
Sega
refer
Bayer
Vince
suivantes
575
McCarthy
CS
anything
##ssimo
reconnaissance
##nod
Nuestra
##cul
rin
Raoul
guard
Cine
##dini
Museums
add
Groß
processus
Surrey
##zd
Molly
447
##nyi
##bun
Sinne
Allied
Quelle
celebra
markets
##lore
Kurz
##iata
Adolfo
Hist
familles
Matteo
##dul
communications
##fully
##real
##øya
Sébastien
Exploration
Ram
##½
840
1698
Anjou
Amateur
##inta
457
évi
##nzo
Castello
supporters
Asturias
durée
Own
##lil
##smann
crée
Southeast
##jka
Andorra
1695
##izi
443
Disco
correspond
repose
##mad
RTL
##tsen
vio
##iwa
Kew
Competition
memorial
##chard
Ob
mau
Those
##llon
Slovakia
runner
##zard
parent
1687
Alvarez
Rosenberg
caractère
descriptions
##quel
1668
Batu
changing
Sacramento
benefit
##ety
Lines
Neumann
formally
apart
diploma
contient
Armée
##cin
504
##riz
Geld
navi
Neo
Legal
##rome
##heimer
##veld
##sol
européen
Frederic
##cés
##vita
1619
1659
laser
matière
terror
faith
1628
##CE
elite
##uld
Humboldt
compositeur
Shield
534
lettre
côte
environnement
Cluj
Rochester
Variety
Viva
##imu
1626
##wne
somewhat
##liko
Mir
clients
##eak
technologies
##bara
festivals
##mman
Doyle
Californie
Further
achieve
venir
Aldo
temporary
##cid
arriva
1611
criticism
Krzysztof
delu
Meanwhile
##self
##ffa
participantes
##ander
Duo
Jerome
##nymi
##atra
##odo
shell
Tampa
jeunesse
styles
398
1641
##bada
Travis
Wagen
Robbie
bassin
Peugeot
colour
pose
##reis
chemistry
Satu
##rera
rele
Inde
##press
alternate
##uang
433
permettent
##uman
daughters
Agricultural
Nottingham
Guardia
categories
439
Byzantine
##dore
affairs
minst
Hitchcock
BS
weekend
Ismail
vend
Enfin
Hector
clinical
##áin
mate
1686
perfect
##pica
éducation
Boom
Stéphane
1636
terminus
Władysław
Mina
Cave
##hum
worth
##rance
Oper
Nadu
##ulan
touchdown
##rle
proposal
recordings
Duque
##nando
Sherlock
Words
Hancock
individu
notre
wine
nommée
##elu
Yearbook
1669
Muslims
1678
##aging
Francesca
1604
1679
entraîneur
##lima
LC
Kazakhstan
Essa
Omega
Emerson
industries
Thames
concern
journey
wit
Minneapolis
manufacturing
##laan
tone
Oaxaca
chacun
##utu
influential
436
qualifying
Lys
fiscal
succession
Chevalier
Mange
sic
FN
nobles
Fisheries
1637
check
##ié
Warsaw
##oses
drummer
Nikola
wooden
Bulgarian
##mne
Clayton
Distribution
Sit
##esc
##nyo
Allison
poems
Hu
1595
Navarro
Brett
Lübeck
filmed
Esther
aura
##rche
uniforme
1555
Gianni
directe
##ssin
élève
##ūs
disponibles
Engine
fishing
##rci
Algeria
recherches
##roni
Myers
Cena
Eight
Siegfried
##uc
##ndar
Clemente
##zier
Alexandru
Beirut
##vino
Aachen
##itto
##parte
Cyrus
Editions
1657
Wake
Murcia
flowers
representation
##chin
Marija
UU
1606
Boss
##erta
##phora
Interstate
1592
opération
Kamen
Namo
##çon
Beth
Seymour
digitale
Evening
##oire
Yogyakarta
3500
Sterling
Climate
##orf
##two
##vang
Eleanor
lutte
645
##més
violent
Rivière
friendly
##lazi
##ibe
stade
Such
##atte
527
Info
Limburg
safe
Justicia
Carson
##oun
Shan
finding
mill
##klas
Languedoc
Noble
##link
Passion
1653
Baku
Mess
norma
successivement
##forma
##door
Tate
##80
Prinz
Chiapas
Armando
lumière
##gab
##stique
handed
##mania
utiliser
##onis
Nikolaus
borough
Parade
1558
Transportation
Lam
##emia
##oten
##tav
##evi
Libertadores
##oza
railroad
##kirchen
indoor
##mies
prisoners
##ely
alia
extrem
1559
##vée
Eugenio
strongly
1920s
Picasso
Che
Shop
##elig
pastor
inaugural
Brighton
Syrian
autonome
tardi
##llos
Kazimierz
FIA
Pain
##gård
quell
Zeppelin
##xide
Simmons
explained
resident
##mä
intersection
##ath
mots
Chaos
console
officielle
Silvia
##oca
##rac
Ferrara
Edvard
Rodolfo
reputation
##roa
##utti
Benson
usu
Vampire
454
Vinci
Jaya
architectural
##venir
salt
##itel
Pueblo
449
Neustadt
Fa
Prado
##ingi
Beaumont
horizontal
FIBA
infrastructure
Nan
506
visitors
Aragon
Mitsubishi
FF
##dlo
1596
##igne
495
évolue
Rovers
509
1565
##onar
Pub
576
##bruk
##kare
easy
Cour
appearing
##cari
##qués
Fashion
Monsieur
##pped
Sonny
explica
Phillip
semaine
Large
##resse
##LA
philosophie
eleven
Verband
Compostela
ouvrages
Jaume
Spiegel
##version
##teca
##vica
eliminated
directors
##llis
yi
nata
IAU
Elliot
Grave
Kepler
Ioan
Meilleur
Plusieurs
1694
strip
Tudor
Gonzalo
Saat
occupe
Valentin
emergency
Ultra
##wd
Twilight
870
Reykjavík
ritual
##ifica
##rave
Pastor
Apache
Paso
Kreuz
décision
sortir
Kada
Ferry
transformation
##liai
Sinclair
555
##stod
bird
565
Auschwitz
capacité
##ajo
accounts
##elia
##sica
Energie
mia
Nico
##dron
Grandes
Sprint
1684
engagement
networks
Beginning
Lights
462
competitions
##mano
Niger
Salah
guerres
Linyphiidae
dite
Eds
ordres
Reporter
threatened
Riccardo
cardinal
Marvin
492
Volk
inner
1696
relevant
mountains
occasions
printed
##arda
1646
##tono
##raq
lists
Random
défaite
Members
Yan
Believe
##lova
orbita
##wart
##ikos
Corp
Alsace
UE
##ative
murs
Margarita
##ature
##ility
Rupert
texts
##jl
mounted
Resource
Blade
violin
inden
Kramer
434
1674
tient
Puy
immigrants
Pál
Âge
Stephanie
sponsored
##ldo
apparition
##sou
rounds
Comte
##gant
Cornelis
Vie
distinction
ori
Rao
Silence
McGraw
##zil
duca
Isto
Shi
Ona
##kab
970
##SI
Somalia
1568
Afonso
552
surgery
thirty
493
Qing
soviétique
479
Indies
entering
morale
##lasi
004
##hari
668
Mehmet
Calcio
instruction
Kang
adding
Lega
signature
##icz
1588
consider
Wendy
Loir
appeal
##ube
1624
Codex
input
Hurricane
##ifa
##éta
Catalina
##ntino
distingue
484
luna
accessed
pianist
Kuwait
Bath
Kirke
soft
experiences
solutions
##nist
##dun
CR
Muñoz
external
fascia
##OP
##ymi
1566
centers
##voi
Vidal
fear
CDP
happened
Pride
physics
declined
Smart
Horror
ouvert
Rodrigues
1693
##cchio
502
LLC
Transit
reserva
Rest
colonies
patron
Gaulle
Soundtrack
790
feed
##lent
##mbra
traces
##mons
Canon
XML
Dino
row
Tank
Lance
increasingly
Trier
posti
##hiro
##mala
municipalities
Ju
Sabah
signs
dependent
pressi
gone
##toma
##dito
1681
1663
Itali
1615
chinois
Bonnie
Linz
Pointe
Malgré
marathon
##tores
publisher
##otic
##ālā
jobs
##erre
otto
Pretoria
##ança
temperatures
##dim
Running
autorité
lecture
Rudolph
conversion
ballet
Southampton
extérieur
Sancti
Lagu
##čan
fair
Lublin
Fortune
arab
footballeur
studios
##visi
réalité
##zoa
##igny
##rdia
##yse
naturel
##edt
religieux
datt
##enstein
arrest
ties
Crew
missile
730
##tiche
##llidae
API
ega
progressive
dominante
Clifford
Religious
507
##chine
##nage
##night
accept
Dalton
Chevrolet
Unlike
preserved
Fitzgerald
distinguished
Nomination
##hout
Ferrer
licence
stan
tube
##pée
régi
Quatre
##gnes
1613
comporte
Unie
genres
535
remplacé
augmentation
tentera
marqués
##sig
exists
1673
Krishna
Kit
##mang
##illon
bona
##nere
sessions
Dragons
Swan
cartes
##cale
Carr
Herzegovina
Situation
Democrat
##toire
Grimm
patent
losses
##iman
circonscription
treated
indépendance
##dicat
##cious
Romans
##tru
##13
annually
officiellement
488
##raj
deputy
beach
##abad
calor
Use
tend
écoles
##tere
rapide
Pine
##ières
periods
Oct
820
##gato
faisait
Doris
Warrior
##ered
##cir
DR
Recent
vente
##tric
##upe
controversial
dare
##aard
Groupe
detail
1602
Luz
1671
critiques
##lti
##tse
CT
CSI
##vodi
533
##rating
##kien
##alu
Pauline
avions
conduct
##vity
##hea
existed
Attorney
libres
règne
##åg
aviation
##ková
##ppo
send
lande
slave
Writers
annuelle
sommet
proteins
keyboard
sis
semaines
Longchamp
Sante
##idd
##arde
Advisory
##oce
Bol
telenovela
juste
lys
##entu
tenan
terras
Darkness
Corpus
struck
##hul
Jury
Tracks
Hastings
##dzi
Cyprus
##cán
mathematics
problème
Were
diplomat
##cello
JP
##coe
##lmi
1547
##pris
personality
459
##quista
##point
538
Abbas
Atari
Goodman
Lt
Experience
sample
461
Ash
atelier
batterie
##oba
Tolkien
##oste
##uff
cargos
completion
Parsons
Ulster
XP
Jozef
bringing
shares
helping
appelle
Mile
Basse
Democracy
Ranger
Guns
thriller
wants
rasa
777
Gothic
Malik
surrounded
##iate
##ression
##mund
peaked
Engineers
IAAF
##atori
vessels
618
exact
##èse
##core
depending
Reinhard
##jil
##oar
wol
Clyde
Benedetto
Copenhagen
steam
##gul
##lman
polar
temporal
secure
##rige
PSOE
observation
replacing
##dier
##riti
##wers
estimates
variation
costume
Kant
danger
##lati
Has
occasionally
releases
536
463
##ables
##vera
elk
740
Artillery
##hner
Juana
##pite
Zug
##dach
875
##sang
##ghter
Daniela
executed
491
filed
##cini
SMA
##eaux
entièrement
##uid
1601
##amine
##sna
Brady
principles
##18
sand
Mondo
premi
Applied
knew
Epic
Dall
Blackburn
##wort
complexe
##rí
expérience
Producer
Ivo
1617
Velika
maritime
informations
727
Nilsson
paru
Celle
Pinto
Wolff
Mora
Greenwich
808
##ulat
baile
##gl
##ishi
##ife
674
Attendance
scénario
Bajo
##itia
Boyd
Noir
1571
Pic
##tut
##etter
##rren
champ
##rod
Libre
arti
##rika
signifie
##plo
peul
##iani
retraite
destination
Dec
1607
1692
PM
Chair
Jill
##riques
associate
acoustic
##igi
##vani
ee
Practice
503
Shawn
Gyula
##lete
##school
assume
##wice
Hara
##sses
Jaroslav
Dynasty
Literary
pilote
conduit
makeup
ane
Breslau
Lea
holl
Lil
##aken
Comes
doubles
##dert
##bola
1578
980
gir
nic
Germans
Petersen
551
Stevenson
BE
##hut
counter
Astronomy
##adh
Benoît
Azur
moto
Norbert
vene
##jun
prototype
1631
##eiz
##ppet
##rque
##pino
Cycling
Sp
obtenu
##kna
1614
Ante
controversy
Movies
Carta
##SF
##gnet
##rc
doute
##kop
Waterloo
Huber
Internazionale
Protein
Wanna
##ficat
croix
redes
Univ
Guglielmo
Neu
Kosmos
Chambre
Promotion
Francesc
Canberra
Brooke
conception
Sousa
Isère
anger
formé
##ege
##kota
##stus
rejoindre
Kerry
boca
municipales
édifice
hills
influences
joc
respective
573
Olav
ge
gros
localiza
façade
producers
vector
2400
Ebene
Clemens
Nadal
artillery
##nami
Maiden
signing
Durée
Alternate
##holt
bound
##eois
nouvel
univers
##esso
Aziz
Sunshine
##rock
Toutefois
##zky
##rama
Henryk
animali
territories
Heather
##fini
##lose
établissement
Reuters
477
Aix
##tko
thousand
1582
Winchester
none
Barker
Luiz
Tato
Monthly
Fest
Lagos
trading
##rā
corporate
Namibia
##zz
lycée
Nights
##zit
Gospel
##dhi
##gro
decline
##cede
objectif
##hak
culte
Miroslav
Presse
Peking
##ried
parce
##rande
fondateur
tanks
1535
Howe
##opus
ONU
Vers
##kerk
photography
rivers
##hidae
##kam
Bund
Royce
tir
##apa
eighth
boats
Madre
##omis
effectively
860
visite
##rero
##xy
1564
MGM
##rupt
Modena
Athletics
étudiants
##stedt
Iz
482
wheel
Edo
Starr
réserve
Marcello
traitement
1553
fortes
##orde
##vised
appointment
Marketing
maintenant
##ront
1608
belief
Mato
##gou
Voz
##RI
Exhibition
illustrated
Olympique
débuts
Palau
710
Sarawak
##dab
construire
roots
Eddy
##CA
Akademi
Gheorghe
drawing
Arctic
Maar
mo
##cento
553
##iac
Marche
##ook
##adu
##kere
Medio
Jungle
Catania
surviving
Portsmouth
harr
##RT
immediate
journée
unusual
honour
##erted
Samantha
Jesu
pus
Turbo
##cite
remporté
Reno
creative
##corre
percentage
seri
##yli
Umberto
##PS
##gué
474
##kir
cimetière
##aden
Origin
966
##chan
vessel
Moment
exemplaires
Druck
heure
##sters
##ério
##lano
Opus
originaire
##lua
simplement
select
poids
Ou
Runner
##cet
fonds
##nique
boa
traduit
##dol
Manning
##lost
##sels
1567
Rostock
##iss
Matthews
Rhythm
##onale
breaking
478
Schuster
HR
Hz
##rib
468
Ke
##oes
##pida
Elsa
Ea
##ards
##tay
##oise
##male
ave
##ssus
Azul
1556
Certains
projets
##got
involvement
OK
Tempo
##VA
##ously
basket
Funk
qualification
Itt
524
U2
Lightning
##ool
Bel
Française
##telle
Clinical
formant
championships
proprie
navire
uniquement
Hahn
truth
1691
##gam
##rli
Foot
Laval
compose
gar
Geneva
defence
Athen
atteindre
##žan
Strike
##cte
##lap
sto
AL
Edison
dispositif
Amazonas
##tröm
##race
Scala
Python
544
Quercus
##deo
522
experts
meetings
studying
Presley
Agua
##ués
##dolo
498
725
##uée
phrase
Kali
Knox
élèves
termini
##ało
Any
Indonesian
noire
utilisés
Critical
funeral
Rousseau
blocks
fruits
Óscar
1515
borders
obtain
Hampton
sultan
detailed
mains
##halle
##tili
Dag
Daniels
Messina
##rasi
##sure
Dato
Sonora
##kg
Chandler
Fifth
lay
##ènes
limits
register
Wan
ME
1453
Wife
##biu
1639
Brunei
##alter
##rese
##aban
suisse
concerned
##nout
excentricité
ik
##dua
Please
denied
Pilar
1575
1584
Lockheed
rapidly
##poda
Lodge
##21
Walking
forum
Titanic
##cati
##tade
##tido
Reggio
landscape
Leur
successive
##lā
Trent
##take
Kino
##rava
conforme
##agu
Burkina
##uali
lasted
Harbour
1080
Instead
##rling
1542
Kung
Sacred
##lico
Shell
diu
##ném
1647
##šić
1599
##gale
1524
socialiste
##nina
##mez
commun
Cardinal
quen
interviews
express
armées
1001
Shadows
##ugu
##esch
chanteur
continuing
##world
moments
Estate
poche
varia
##laria
ports
taba
B1
##open
481
trouvent
##hala
##wind
##guda
##teria
license
combats
Cage
Theme
Joaquim
Lugo
Pie
631
##cura
##rr
réalisation
buy
Gregor
656
##bai
Talbot
Marty
apparently
##rett
débute
Fanny
##tee
finit
##bler
Herb
##bound
Estrada
whereas
##nisse
467
Euskadi
1488
conclusion
Centrale
count
##qvist
##xel
##lya
Hale
Flag
##finals
Chung
galerie
Numéro
doesn
##zs
##llet
Planck
stella
beaux
##jit
##rolle
Holding
690
Britney
##plane
GDP
integrated
##phe
trainer
ende
reveals
funded
##worm
DA
Garde
Oman
Paulista
Plate
##iale
##nho
meilleurs
root
véritable
1480
Mona
cheval
1552
##bilan
##onica
Britannia
influenza
chapel
##tys
Kern
Atlantis
Led
Atlantique
Neville
Zie
##mn
##nées
Destiny
Pokal
Demo
##nnes
632
##olle
Rap
Legenda
Talent
##aling
portrayed
KB
##ufe
largement
Fun
Faso
Hawkins
##bito
abbé
Alphonse
Borussia
Powers
Lester
greatly
##ensi
rescue
Hat
##telling
Echo
##inie
1545
##quez
Ninja
##riss
organisme
finance
Wes
ref
Amazing
rated
##gawa
anciennes
IPA
##taria
Kedah
1583
Belgrade
anglo
connaît
Capo
Honey
choose
##pek
pais
pression
DM
channels
commandement
Always
tente
##enas
partners
decisions
Mt
Società
605
Alfons
régulièrement
##vind
Hole
alleged
interaction
graduating
##vic
##utati
##mbar
Russo
##imit
##vich
intense
vital
##mida
sh
##70
Lords
Garrett
##hardt
notion
##lass
Rua
plana
bones
##sero
Mathieu
lettere
Warwick
facing
##kent
##lande
procedure
boss
##tona
normally
Stavanger
Maroc
biology
Perak
employment
Carex
##mble
systèmes
##lz
##ify
##bris
legend
dié
##ühl
benefits
Ned
principle
Brandt
faveur
whilst
005
Quang
ion
localité
magazines
584
notice
descendants
##anus
hundreds
championnats
sequel
Hamlet
##āh
revolution
1519
##wise
Revision
faces
longest
Bright
##kok
grid
##sad
Katie
credits
Snake
##aming
##visa
Trieste
Indie
Providence
victoires
Olaf
Florian
ato
seek
Hôtel
Joanna
poles
Quito
Ezek
##bilis
##inho
vapor
##cott
socio
voiture
##part
Magdeburg
Liam
item
##uat
466
navires
carro
turning
Él
themes
##leis
Pak
Legends
Knowledge
newspapers
publics
##mment
Günter
Herz
Tenerife
Lancashire
Titus
MacDonald
Suède
tail
1589
##kh
Moderne
jet
Allegro
830
Kwa
medals
Sales
apply
##rive
Saxon
##kong
489
##pton
##tol
approval
##raphic
Almeida
ride
clip
transportation
extent
1517
##dare
Usa
Arrow
Michał
absolute
experiment
Chihuahua
locaux
##pla
amongst
youngest
examen
corresponde
Archiv
Mens
Mikhail
Yuri
770
##haal
Já
everyone
energi
punts
competing
Payne
Commodore
##ébe
Remember
##loge
NWA
##ujo
widespread
Beatrice
Licht
Corner
Mara
Sad
Distinguished
Teddy
creat
indique
1527
remake
pares
venture
politici
Orang
##piel
quo
Mall
wrestling
Meet
Var
sest
Faust
documentaire
Mittel
1562
plat
lose
commencé
développé
genetic
##kens
Constantinople
Franca
useful
Hartmann
Länder
548
bai
Escape
##pai
visiting
Conway
refuse
Lab
Memoirs
##cce
Tin
##iting
Fat
Cornwall
biological
acted
Dina
Roussillon
voting
unités
Breizh
##iso
impose
##olen
Weather
1677
Barton
##bli
infantry
##wed
Moun
Aeronautical
##vero
Lead
recommended
##fit
##tris
italienne
surprise
Santi
##chal
##bem
Ton
Luft
##fiée
attracted
Coca
locomotive
2e
##cun
generated
struggle
Tous
Think
ment
1573
Pl
Mouse
1541
holder
Seri
Mack
chute
Adobe
##ród
1534
Job
Eberhard
Croatian
##clave
colony
ung
innings
Sinn
Légion
collectivités
Millennium
##dele
##celli
hil
explique
résultat
horses
ultime
ES
vainqueur
warga
Dynamo
##dente
Neste
activist
##100
littéraire
Sans
Caterina
hôpital
constitué
531
Saunders
Winnipeg
arbres
##enin
Hussein
Mu
##olia
Carvalho
##èche
Schwartz
##ystem
Tarragona
##cene
Conte
appare
##eline
Gear
Christians
##valla
Ese
drew
##jali
529
Mein
##nella
##posé
polis
uncle
##own
583
Forster
Ferro
maladie
correct
operational
understand
Todo
moves
##amat
appartenant
locomotives
Vogel
layer
##cor
541
Romani
usual
##sville
Shore
colonne
##ication
##tures
roue
poète
##AF
Worlds
agencies
Crosby
##eler
Patterson
gram
##æ
décédé
conflit
sentence
téléspectateurs
##zón
indigenous
##úl
Fuller
##ssel
##oom
##SS
##otu
Björn
méthode
customers
amante
487
##cycle
##diction
Planning
##aq
Ethiopia
seed
Doom
Fury
Technologies
plasma
dimension
suis
francs
donated
NO
##his
607
log
Aberdeen
String
Sami
##erang
Burn
Alien
ono
opportunities
642
ON
##firma
producteur
1594
Lorsque
##dence
BR
Animals
Giles
810
##ikin
dominated
##erti
##cena
Alison
##rise
##OC
##lga
FIDE
##liv
Forma
1516
##utus
##iglia
Principles
persa
permettre
Sheriff
cinquième
cit
Vier
submarine
collective
décret
fighter
1563
giant
##adt
nostri
libera
cathédrale
jurisdiction
Platform
##raft
voti
Unix
##nche
##west
quart
dee
déclare
##43
010
##eral
##quent
Bulbophyllum
##upan
##opa
Cortes
##HF
propriétaire
Chico
517
##ements
Dunn
writes
Partner
begun
581
1597
aut
##uncia
##nki
##stin
##dici
connaissance
##hay
confronti
Points
telles
suffering
Bernd
##cev
Reinhold
Ríos
comédie
##nado
##phones
571
civiles
##garo
Mimo
Pool
##kun
##rennen
peine
chim
régional
##lian
545
Baltic
Worth
Tears
Burning
1587
Horace
majeur
##anes
Serena
therapy
##öping
BB
Maestro
##mest
##tali
comment
Tien
##arat
scholar
Español
nécessaire
Kad
thème
Volvo
demolished
Liechtenstein
##lona
##dres
viola
Rule
boom
Patent
singular
##tli
injuries
##kee
charter
Silber
Achievement
Cristóbal
579
Avignon
favore
##étique
Gomes
insurance
Guinness
Heer
Nou
##oos
1470
pret
disque
LG
appropriate
participé
quinze
Crash
##jum
1561
suspended
institut
Biographie
junction
Faber
##hman
##mberg
parle
Archbishop
Revival
afterwards
advertising
moyens
##ihan
competitive
produces
Silvio
##raal
Cabinet
Georgian
Rosen
483
patterns
permette
wear
Ku
taxes
scientists
Sword
Bedford
Parte
707
##ahu
##inti
Fowler
Holz
Secondary
##inou
##dene
businessman
Row
Sutton
Cyril
arbre
##agan
Trouble
Sutherland
scores
AV
Halifax
Mahmud
NT
##fiques
lov
sida
Fate
representatives
supplies
MLB
frequent
termin
537
fête
Help
yeux
Königs
caractérisée
Beer
##lve
Regensburg
##tila
héros
Championnats
1576
spoke
exclusive
##zno
##gav
Corse
copie
615
##vey
crowd
origins
neo
manier
##cology
Girona
##ratu
warm
##osto
propos
perdu
##lisen
Rapids
Puis
1510
Meurthe
Uz
grandfather
Did
##yas
Villages
Dodge
endemic
Jérôme
Prentice
1574
assault
##ange
Soldier
##mut
##thes
Hélène
disk
references
##rode
Check
Trøndelag
767
fleuve
##ING
expand
##esto
##pir
Gabriele
Having
##chor
##hone
attributed
twin
##ndra
conservative
Martinez
vise
##lude
##mers
##rost
Priest
Frontier
##laus
traveled
##rées
Mateo
perdre
494
indicates
##ffy
canon
breed
Crambidae
##ayo
582
Io
543
##ymo
##yak
##lain
Sims
Taipei
glas
##sola
Elm
Flower
kr
sponsor
remainder
##auer
Zhu
Lorenz
suivants
602
affiliated
electrical
directo
##trag
##ieu
sportive
##rella
excellent
Labrador
agricole
##atio
Wrocław
##landa
##andre
##eses
589
bid
Bergman
##ssé
essential
##bul
##tze
##vata
##lho
erected
corruption
Minsk
patrimoine
mobil
Colonial
##vci
lati
##iton
Manga
animale
deaths
Protocol
532
serbe
##tao
562
Tarn
Lukas
##tenant
##elj
Irwin
Chaplin
##lated
notables
parliamentary
Miquel
##reau
##giu
wider
fortuna
polonais
soir
516
Dudley
Hands
ocean
##oft
Tribute
##xie
Twentieth
##fere
##wara
reconstruction
Penny
déroule
##oud
Gross
##stol
étranger
##orce
instal
523
##sheim
##relli
##elas
Tercera
astronom
Candy
##rb
corsa
tad
mainstream
variations
formule
Walther
Congrès
slalom
##nali
Acacia
substantial
Aux
##sius
Maxim
matrix
##rela
dung
Bears
Damon
telle
##aram
Doc
##EN
parvient
emerged
##sl
Benedict
Mathias
kanak
##arn
féminin
##arin
Newfoundland
Maastricht
lord
Clare
Liber
gradually
behalf
##vski
partly
Cho
##uita
retrieved
##cède
##eir
mechanism
Libya
563
hope
##tnik
animated
Spike
Enzo
Extreme
eno
##ifolia
Find
Williamson
parcours
1586
Shortly
Bin
ferme
nazi
Oldenburg
vei
672
Sanskrit
1543
##chie
Clan
ruling
activa
##bold
collège
soldier
locals
Dominic
matters
##utes
mart
612
médecine
Extra
Gouverneur
aka
910
Pico
##vato
##zanie
Engineer
##pose
##mura
1503
steps
gallery
AR
pitch
abroad
chœur
latest
mener
Revenge
pars
##nima
##mentar
##60
Novel
##ifer
##sler
##amental
rain
SmackDown
1577
Tobago
BP
Ferns
Summit
Amadeus
##pace
Poitou
tribes
AN
publiées
écriture
Tomasz
autorités
Meeting
##ssed
Maja
opérations
##oms
##tov
Ave
manque
fortement
Caen
##tré
##ilea
Malawi
##nete
éviter
Rakyat
unsur
##éo
Ente
continuous
##LE
gull
Evelyn
Frankie
Citroën
##pien
Shelley
##ulen
KK
concepts
Éric
dialogue
##della
##rty
Wat
privat
513
##roll
Bianca
##linger
##slav
déli
##vode
1460
##ennes
##arta
tram
##cami
Standards
uniform
##idh
neither
Croce
##ashi
Michal
D2
##cere
Zoology
anglaise
spending
Holden
Tunisia
635
##pler
##yah
Constantine
responsables
hearing
usine
commanded
920
##pira
apparent
Luka
Commercial
##ctes
##ady
Oricon
Scout
Quelques
##ammen
posted
##wain
Cabrera
Nieuw
##rion
albo
Eli
Norma
Pitt
Alam
##ddin
Partners
mira
residing
soient
C1
Soto
585
Cut
Cádiz
##gari
seeking
##mov
Ortega
##tent
Marburg
##logique
##nera
Elements
##sana
Gabriela
##rean
Amir
##visor
keeping
##ôt
Math
##garten
Hamm
platforms
##DB
##oat
930
##ération
propres
514
##strat
Grosso
volo
Oz
identify
élevé
Rocha
viewed
##edia
##tesi
##ʻ
Bacon
##bab
Armed
##quist
Avengers
accidente
rebuilt
##ndas
abuse
nest
##gidae
Numbers
Rocket
Stay
Petite
##flora
##aha
eni
shore
subfamily
vale
1591
dream
592
Beaux
Ci
##siz
Guzmán
Disc
shift
Dangerous
Cunningham
intera
##gnant
WHO
##deling
Königsberg
encouraged
##scal
américains
##fta
##pect
Pamela
membrana
Twenty
##aks
Chin
##dry
##BS
Dub
##pna
##atti
span
Dear
huile
revenue
526
Bola
Event
danse
Rolls
##xid
##éal
temples
Hogan
Rok
Orion
departure
remove
Wojciech
hole
##bado
reduction
Pure
Lucio
##hips
542
##umo
Héctor
Új
Th
fondation
Basin
Lev
Sao
halve
Duck
##cover
##64
Butterfly
1°
##cente
Hooker
##icum
hero
##aven
##leen
##kking
Ruisseau
##oty
##orie
parlement
médecin
A6
assets
##zine
##sade
Castel
Bautista
Porte
rhythm
metropolitan
Nad
##gae
##sico
##tteri
Wir
informe
curta
##pling
vary
##ezi
561
anyone
##polo
depression
Montes
Juniors
##nada
##mental
traduction
Sept
broadcasting
##isson
chamber
dorsal
Ship
##ilt
##works
Alpi
##ilm
Tara
chevalier
##oya
Norwich
##rable
Gareth
Hulk
LED
##reus
diffusée
Educational
Fellowship
##hid
##iving
##axe
basé
offs
1593
Opéra
Finally
XXIII
##lod
legs
Macdonald
Iași
Garland
Ski
Uttar
toured
Rode
worm
Leopoldo
##orium
##fik
relatives
Secrets
habitats
Sonata
Spy
tribute
1581
glace
##erst
Fontana
##torial
Reality
##usement
fame
##urg
Calvados
##hian
Robot
##titude
##lce
##ologist
##web
Reilly
Natalia
1557
Galatasaray
##SL
Bock
duet
Salazar
dini
Basket
Kathleen
##mburg
PHP
technologie
mann
strategic
##erto
Cent
wings
Truman
##veri
Journalist
Bone
caps
chasse
Australasian
##bom
Pia
governments
vieux
Ferdinando
Marines
delà
##eat
Direct
##rif
enjoyed
006
Dell
##genes
1512
711
outer
colonna
compositions
##PA
603
gigante
Wedding
##ssement
Highland
832
skip
##boj
##auta
puisque
Vosges
palace
événements
Cara
Xu
Plateau
Emile
raid
1186
Elton
MR
Goa
mechanical
pm
##fels
##dane
grades
##lys
Maps
1490
##rtes
##AR
étend
539
appartient
dong
confine
##agne
Nous
Pioneer
Simple
Ono
##itions
519
KG
Housing
retail
lesquels
##SR
acteurs
orientation
Richie
Osman
desire
Various
##erat
entrant
Aquila
##vado
Basa
##uke
##olin
##vā
Keys
picked
Tolosa
Signal
Title
predator
##idan
##pr
##erra
613
mani
Johor
Mondial
Hawks
##oux
##hau
##ET
##prese
clearly
suspension
permit
##rly
1554
Freddy
##pert
Watts
##iye
Regionalliga
Chaque
permission
1529
##ulis
##dana
Minute
679
avocat
##tene
##èvre
AND
Lettres
##oissa
Spitze
##ntia
Voyager
##cats
projecte
1204
##uvo
Rojas
##yw
Mercy
688
locally
##aile
##zyn
golden
Clément
##vost
1523
découvre
paras
Gottlieb
Revolutionary
Clive
Tomo
rum
sir
Landtag
##ropa
546
##porta
Frey
667
voies
Poe
neutral
##tants
Castell
Pen
schedule
##ngar
Aber
fictional
##istent
##nikov
Franck
Cologne
##meni
##ogique
##mul
tou
contested
ranks
effets
characterized
Mehmed
567
Celui
mond
slot
##istique
Ursula
##vici
ITF
609
codes
Romagna
##jama
Observer
Choi
Mendes
Natura
sièges
voire
wedding
hadi
##dali
Reformation
SL
brit
pati
##athlon
Bagdad
traded
editions
##chio
handling
Eugenia
descent
Daddy
Ren
Delgado
viewers
Selle
##lett
1579
procès
Tristan
1533
fonde
Cotton
Amiens
Wi
##how
Rabbi
##nchi
mama
##liano
Brigitte
leaf
Pocket
collecte
Maurizio
grey
Ávila
claiming
##ference
hommage
pouvait
##ruh
scientifiques
497
Ribeiro
Prison
Lois
resp
##kud
##mol
bleu
##mian
##nél
hur
cash
Boulogne
##ndum
Bees
clock
situations
risque
Judas
compare
Prefecture
mich
##fero
##mper
##pulsion
628
Henning
##uco
USSR
Workers
##NI
organisé
##lena
##yoshi
##ically
##fabrik
##RC
Aarhus
##hrlich
Linn
practical
devenue
Expo
Gomez
##enten
emperor
596
Christensen
obu
Liszt
Zhao
Charleston
Description
##sim
705
##ION
##xic
Graves
crown
displayed
papier
##chid
Isidro
aimed
##oop
Miracle
##iformes
Aug
explosion
Perez
Yusuf
intero
oppose
KC
Solid
concerning
##lme
restoration
Sunda
Wanderers
Bains
##érée
Sv
charity
##mio
Emery
Siberia
Sturm
##ault
provinciale
##dena
Tottenham
annum
installe
tun
Brill
Petri
Trial
romain
##graphe
Hercules
Ready
options
##umes
Babylon
résistance
##eche
enzyme
##orem
##str
shopping
Antonia
Squad
Files
Père
##laste
douze
##uria
swimming
##gr
Bland
Erika
787
##vec
##ède
IK
tol
1528
implementation
Gestapo
tron
UP
Dwight
uncredited
##vate
Bernardino
##ught
servant
##sif
##ntang
Adriano
##zei
##print
Grèce
Bohemia
##NB
Pohl
975
assisted
1420
Schubert
raio
##gés
tool
##tium
Norris
##rnen
1150
1537
militer
599
mara
tiro
exposed
increases
cave
Swing
ST
##typ
Paus
Hilton
hardcore
##rnia
Tango
doctrine
Darren
Adolphe
##MS
Kader
sentenced
legislative
Mika
Minden
##tya
margin
pé
Musica
publiée
##24
JA
carrier
juge
Imam
throne
Marte
mixing
Sent
757
Sessions
Akira
advice
Ouro
##hane
Flowers
##site
Archer
Chrysler
##uy
Cha
ouvre
##rire
586
##ellement
##veen
Deborah
Président
1440
Kaunas
trente
##vall
membrane
##arne
547
Wyatt
##lady
##sfield
##xis
##quis
##thi
Suffolk
Fuji
possibility
##jeta
##kui
Pinus
##áv
Carrie
##tah
Sleep
##hil
Tunis
##érés
##nded
Souza
##qu
##pping
publicly
##messe
Batista
rotation
595
##avan
Iceland
##veni
Vázquez
684
opponent
##lih
assurer
dessous
##iba
Kitty
##ising
##pec
Boat
ker
Hautes
##nose
Holm
civilian
Pest
Phys
##IF
569
Rocks
modernes
Grammar
##amp
10000
Tem
pouvant
consul
##gaard
cello
Feld
549
##nati
researchers
Denise
defending
Proto
Mojo
##öll
##gali
##hri
##rap
professionals
tué
940
DNS
##nke
plates
température
Neptune
##ienda
Rodney
##hong
estudiant
plena
aile
Asunción
tenta
701
pratica
massacre
Fusion
rising
641
bell
##hawks
orientalis
shoot
##chend
Okinawa
##iges
##xica
Iglesias
Gotha
spille
##vasi
merger
flor
Rudy
##usen
##lii
Disease
jardin
traverse
Sede
Tomáš
##éi
rode
subsidiary
##kaz
##nah
printing
doua
Premiere
outstanding
reportedly
Zambia
##bó
BWV
passion
##ppu
##vari
Lowe
Dora
Voices
involves
Égypte
Inspector
624
Matti
##pier
partially
toi
Senna
nasce
##eath
##vim
GSM
##midae
Gaetano
éditeur
asks
Desmond
##ckel
attitude
Ova
licensed
Dickinson
##thy
##gement
M1
bear
##erar
675
##19
Dogs
616
##kut
Pedersen
##welt
##ivar
Figur
Roque
trials
Ardennes
andro
##vens
significance
##uter
Focus
1539
636
Beyoncé
##isha
consulté
Goya
Sergeant
Cromwell
##retta
Dua
attorney
implica
554
inclinaison
Zoran
minority
890
##èvement
##uaire
pictures
weapon
Claudius
##llia
Bernstein
fresh
circumstances
belonging
Scale
##toni
photographs
relocated
MK
organised
tenure
Cars
##nky
671
Exposition
Task
happy
Clement
CONCACAF
Pack
Apertura
Gonzaga
diseases
attending
Pamplona
ons
AMD
Stranger
Albanian
tape
##code
Barney
##oq
Irlande
##fait
coda
Michelangelo
##imus
plural
Cuenca
acre
##loga
##usia
008
circle
Amour
##sons
ceased
électrique
Giulia
##fano
Haas
##grave
saxophone
Evidence
##biy
##duction
Madeira
##iis
Barrio
Calcutta
##erea
framework
##shof
micro
trust
écrite
Dijon
présenté
##dering
ovo
##plin
Monkey
Sunset
oz
##ished
##hod
##rinde
spaces
vivant
Skopje
Romain
##gging
Rebel
##pland
##viser
Additional
##duct
##jave
SFR
##gini
toun
Hongrie
Bulls
deployed
##glie
Stephens
unan
Belo
Deal
Altri
fee
##tration
Vatican
limites
scènes
##mei
##holder
touring
universitaire
Sounds
1940s
558
##uré
closer
Breaking
Zimmer
Gabon
artillerie
##orme
##üs
Pauli
1532
Dracula
Enemy
Locke
Hampson
drivers
1538
universe
##sp
laisse
accurate
apartment
593
Pavia
isolated
traf
##tae
##rité
##ôle
clave
Role
implemented
effectués
accesso
Machado
Lyons
##lemen
572
Blog
Mikael
##ranno
##×
Nowa
Nusa
##vd
Olof
lendemain
Must
Archaeology
lando
settlers
##DP
Laurie
##ylum
##hado
##gura
##noma
##ntal
Lex
Schumann
gauge
##kopf
falling
Dion
Liberation
Francie
Arch
##pang
mena
##uza
Streets
consistent
Ara
##dotte
##ald
##mosi
559
Salomon
Sancho
erg
##quita
combustible
Hubble
##érie
Sage
colleges
ITV
##kio
suburb
Representative
dessin
Chronicles
sauf
Divine
##neri
Therefore
##zane
Muller
Vaughan
Dias
limita
568
##nec
beauty
biens
##GC
brillante
dum
merchant
Linné
ninth
profil
cree
lois
unir
556
Lunar
Daughter
Anak
Royale
fè
Visconti
Référence
jump
householder
##fina
perda
Sigmund
##type
##bbia
trend
Bonus
Casablanca
##ept
Nichols
touch
Peggy
Electronics
##otes
Bergamo
1260
##brook
##dn
##gles
614
Cartoon
Erfurt
Murat
veri
##cony
Sabine
magnetic
tension
sheet
immigration
##TM
Abbott
##ieux
fitted
##cade
Braga
Vitória
Rocco
recovered
freshwater
##bergen
Maple
##rter
Requiem
Ambassador
maximale
Donovan
NN
désigne
Randolph
ingénieur
##novi
organise
##tang
Finals
Daisy
##tead
lava
marks
##urde
1522
listen
Belarus
vivre
irregular
Josip
bind
TNA
Mihai
Poitiers
##brane
##ffin
##dic
individus
##eling
##mil
economics
##lm
bond
Egli
Syracuse
##haa
##ård
##pita
##rants
Vito
Allgemeine
milles
TCP
infection
Atomic
Colón
##fund
##øn
Puente
missed
qualify
taller
xan
##aty
833
Networks
##xon
establishing
Sc
##cili
##pice
##rnas
Quarterly
sufficient
Jis
pit
785
##ols
990
##ezh
##ldu
Chennai
##ritis
cf
kick
peoples
##lsk
cores
Lager
Dalla
##bba
##cades
##dei
Jaguar
OP
hiri
Bloom
Oviedo
Melody
spectacle
uri
##vili
##lao
fragments
disorder
##jad
##uell
##ggen
Witch
discussed
##stis
organo
bourg
Syst
ranging
sounds
Branco
626
Deutsches
timber
voters
Barack
fortune
##yme
simili
##tales
Invasion
regi
##enu
##uzi
somme
pis
deb
##ames
##poste
avenue
Presidential
unincorporated
Worcester
##brand
eldest
Mira
loser
Steam
##lst
##américa
Cable
##AD
honorary
DD
essais
farmers
spp
functional
Eindhoven
Tommaso
##éria
##øm
Bit
torn
##rnes
##veg
1180
repair
##shaw
comprehensive
1551
nat
699
Chiang
NASCAR
##phorus
Duc
Hepburn
delivery
assassinat
1549
655
AF
Nietzsche
Té
##rab
Sung
révolution
flights
Haji
Há
Aude
Euphorbia
suitable
veteran
##TC
##bele
survive
ens
Sox
Kerr
##leur
Driver
##halte
lowest
rares
Shepherd
indie
##gien
relativement
Naruto
Photo
Opel
Boyle
##fus
Wallis
pairs
Har
##iane
Definition
introduce
##pital
drafted
Oder
ep
interpretation
##meno
ena
favorite
Matrix
Extended
primit
exclusively
ratings
##scription
##hot
Negri
##gum
Surabaya
arrêt
remote
Dahl
##gui
Excellence
##rny
587
##aly
Gama
NC
aéroport
Andrade
Velvet
Cure
##pl
dono
##OH
Experiment
##sible
2D
debt
##bble
Zurich
##cure
##ilan
belonged
Belt
magic
clean
MP3
Ravenna
parco
965
Latvia
Sama
Ulm
Salisbury
##pent
##pf
##viy
Busch
Selby
statistical
electricity
néanmoins
settlements
Merit
constituent
ecc
Currently
##tiny
terrestres
##culata
1513
##culo
##igata
gap
Danzig
Rasmussen
sor
##pista
##phere
diocèse
##roda
Salle
canons
##mettre
Mort
Rada
Tesla
715
romane
guilty
aim
##nno
##ddy
Arm
##nee
Philosophical
mura
travailler
##wit
Liz
ABS
Tokugawa
Protestant
spatial
##zena
1501
soa
##tait
Confederate
monastery
952
Rot
Palestinian
exercise
Juárez
##natural
wrong
##tual
##úr
Villiers
tele
lie
liaison
Bourg
634
Billie
Gerd
wearing
617
array
bandes
Surface
elegans
##onic
Laws
judges
modèles
ramo
##bers
Biodiversity
hori
changement
organic
##pine
connecting
##enko
##yler
MLS
slaves
##elar
withdrew
marche
aw
##chon
Gloucester
##vanie
conventional
decides
Hispania
Nolan
Dessa
edib
611
##mah
C2
##xan
##vaux
Democrats
Youtube
Amelia
Führer
Mixed
##nadi
thinking
besoin
##viti
##ingly
Throughout
Flynn
modelli
Emergency
prac
##rema
Nicholson
vik
ef
bag
Brent
Kashmir
##orten
Honolulu
##eville
##ïa
treaty
##unde
##kó
##oper
##eyn
Experimental
Friedman
##kkal
FDP
blanche
commented
Abs
doors
##phis
birthday
##lke
profession
Della
Ahmet
Booth
nomen
pone
Inner
##panie
quarterback
Mighty
Garibaldi
experiments
kb
crossed
##jni
Audrey
humaine
Pt
annuellement
Naomi
Shu
arrangements
oncle
Perugia
973
Nordic
cylinder
Cumberland
##éis
Walton
1504
577
##iella
Togo
Ala
Sidi
##zus
radiation
Trento
illness
Raj
591
##dela
##eding
desert
comparison
##oden
cooperation
effectue
sequences
##lights
viens
portraits
trail
Goldberg
abandon
629
Wish
initiated
Lakers
##stem
NA
##eves
fled
kabupaten
##ators
Sailor
##nque
##tuan
##irat
musulmans
##ruption
##ject
Qua
##aye
riding
communiste
1505
622
printemps
##ranta
manufactured
Salerno
##rust
RI
focuses
reaches
1546
##inia
##hde
##jur
talks
switch
606
Harriet
Metallica
##uia
Elbe
Vogue
Ah
rebel
soldat
Unicode
621
veu
Futures
Initially
##bral
Halloween
regulations
##ār
économiques
##čić
participer
Gap
##baret
écliptique
##icis
Bahrain
Cervantes
exposure
fala
Chamberlain
##imate
##kawa
Isa
##bord
Crane
fent
##inet
##rala
cemetery
Steele
dialect
1494
Dann
téléfilm
1380
Lover
bars
##tist
Collège
714
Rescue
##urne
Arnaud
##egi
##roi
##acia
Gogh
dirigé
Constance
##mouth
suggest
Albion
riche
##pard
##kling
hyd
Mello
##gone
députés
RT
##rley
##gula
##ect
Freiherr
9000
##ndu
##quiry
Bellas
believes
peer
##building
Smile
Kazan
664
ouverte
Ronaldo
ej
Romanized
Weil
627
Schwerin
unten
ages
bassist
manufacturer
##lv
Everybody
Esse
utilisant
vet
1430
Crow
##weiler
cattle
earning
Eng
Quantum
rector
Yamaha
Rihanna
targets
##eds
Jésus
##yba
territoriale
Amos
##fix
pursue
Dai
##penses
repeated
boundaries
japonaise
Schulz
Mauritius
##pene
Nickelodeon
seeing
##leta
Author
seem
Agostino
Properties
##anic
alive
##rgus
##sek
stroke
tida
##ingham
##arian
623
##vissa
answer
Nino
zi
Border
##tosa
Adrien
##lons
##ovich
Buda
Prairie
Jörg
Achille
Gavin
Killing
Gibbs
Lao
roller
scholarship
BMG
detective
housed
Resident
##ipe
Byrne
Aguilar
Hiroshima
kHz
Dexter
evil
##life
##nicu
Ludovico
jugu
##sula
##rater
ari
801
Nippon
1370
##omes
##culture
dangerous
secured
##here
##oof
Yorker
Alicante
intermédiaires
##asia
##vena
eventual
hunting
566
Cô
##gert
Gian
Thought
##losa
##dista
mac
bone
Hora
##ndor
narrative
##ncu
Bridges
##nista
endroit
porter
##KO
minimal
##fal
proches
raisons
Morocco
##lif
domaines
##lci
morti
##ennial
Diesel
Memories
Farmer
##veli
étoiles
Soleil
AAA
574
##cture
Iván
romantic
Lydia
##mosa
Lithuania
##jean
Gud
Tas
creu
##aille
##nç
Jalisco
victimes
##pán
Graduate
##putat
closing
##stat
rai
Einar
Adriana
Restaurant
Calle
Sheridan
Lies
UC
surfaces
Looking
pilots
##ieur
##cq
jaune
Mat
automatic
placa
topics
prices
##tend
Platinum
619
##wak
##UP
##rdu
768
Elder
fabrication
Greco
Kan
588
sharing
##acha
Albin
Georgetown
rebels
##omas
Rwanda
##ckie
##rista
##nated
1485
##rière
Negra
Linden
##posant
##nota
Gong
battalion
Cove
1544
Girolamo
Diary
envers
Wednesday
##quette
Rim
##drom
ongoing
demonstrated
Harlem
Simón
##blica
attraction
battery
886
##erno
Jennings
mouvements
##hop
secondes
shi
unsuccessful
##dru
tea
resti
Benfica
topic
1548
Supplement
configuration
##tée
Paola
athletes
1514
##walt
coaching
##emma
##szt
828
V6
Holdings
canta
##cated
speaker
herri
##nnie
Gonna
Alps
Odd
docteur
publiés
cercle
Vicenza
administratif
##lave
faits
hidden
1495
bred
##fas
1240
Iraqi
isole
Shot
##tla
##raya
ford
avis
Burundi
Buffy
Gerry
Rover
professionnelle
synonym
poursuit
Brugge
##kl
##ision
##uana
Martini
commande
AHL
##obu
CBC
Cardinals
rarely
Planetary
mentor
Breda
Goldman
curs
##cah
Photographie
Manor
Merlin
##syn
nul
##nama
Ras
Tbilisi
devoted
industrielle
systematic
Quick
##czno
##tress
mina
ONE
Loser
Everton
regulation
Phone
Haydn
##iaux
Jakub
Southwest
##dov
Move
blu
Methodist
Birthday
cellule
##nap
WCW
UCLA
identical
##iné
Ventura
##város
Montserrat
oppidum
assai
bachelor
1475
promoting
##achment
Clair
lao
responded
recipient
conserve
##pok
Weekend
##uet
##fes
Casas
expensive
tiers
##buk
##ument
beating
PBS
704
##iare
##acher
Progressive
ming
flotta
Fenerbahçe
##ertu
Ericsson
Identity
##HA
chemins
##mide
##quity
Kari
colori
Écosse
##ême
IEC
afl
##oco
helps
Alves
costumes
Coventry
Mestre
Costello
Individual
auparavant
speakers
##nary
segments
578
Zheng
handle
Košice
cult
1506
traditionally
Monk
##rence
sociétés
Resolution
5°
ml
Electoral
oriented
##rgie
cameo
1531
##lj
Srpska
préfecture
aluminium
##tras
1498
communal
divorce
olympique
##kama
557
trouble
##enos
##ilia
Abe
oiseaux
Rookie
fifteen
1471
Moser
Nathaniel
maximal
##zani
##ongen
##rven
UV
##ission
Mala
Sina
##jevi
Resort
Hermes
Kaufmann
enters
Roca
Furthermore
##steries
Felice
##zli
sailed
Dél
##chel
Tasmania
##esca
Philharmonic
connect
spiders
##rones
##atta
Coimbra
##neo
##cón
Khu
##ign
##kul
provoca
1230
##izo
Daniele
##jaya
712
Magna
Mihail
Bean
latitude
navigation
##llement
Aves
load
##riga
scenario
OVA
venda
##tende
internationally
Marshal
eggs
##tens
Raphael
chanteuse
1340
##ND
ova
754
Devils
Tea
liquid
affluent
FAO
submitted
##rug
Owens
surveillance
Gdańsk
##luse
##ndia
cantons
TO
rally
analog
datant
banned
##zle
Standing
Vickers
717
Carrera
Barber
nua
ressources
##DH
Humphrey
cales
633
##icate
##mics
adoption
992
comprises
trailer
noise
Corpo
Brendan
Fernand
##eration
Directors
connections
Maggiore
Hartford
##trum
##riidae
modes
intent
##rond
##nthe
ie
Odessa
##zeg
Prussia
Tata
##tais
Ministre
##GE
liter
Galleria
##DI
opéra
Strategic
restricted
branche
##rong
##geon
fl
##pura
##paro
Bye
597
Cagliari
situ
##chó
GR
813
##nels
clothing
##oel
sci
Translation
substitute
beau
##ground
gur
##pson
##nné
GHz
Sheikh
computers
##nted
Dakar
##piro
##vac
##jut
rocks
1050
chevaux
predecessor
661
Overall
Ethan
##NL
##kula
##eos
Hala
Mol
Sei
653
truck
Plains
##manes
ISS
##nny
Barnard
##bide
privé
Mayotte
Alten
hir
Altar
##gee
##rebro
endémique
messages
concerne
landed
987
637
module
1502
eligible
##kana
flotte
1483
certaine
1511
685
Schiller
thereafter
Burger
Djebel
Mines
Breton
##nitz
##ruda
Sabbath
échange
##oci
Burt
Eclipse
quota
Fuchs
638
ticket
rice
atmosphere
Doo
columns
completing
1220
nag
598
Waiting
##opsis
##sens
Vietnamese
##izes
diocese
provisional
samples
##phin
miniserie
##tante
Nineteenth
ner
Angus
starter
##former
RD
Chancellor
##ghi
unlike
PGA
rifle
Belize
Diaz
Bianchi
Pot
##ctar
ii
Liang
##sans
##ply
looks
Cruise
Duty
##bik
Aku
waste
Liberia
Males
rurale
##bate
##issement
Eliot
Gallo
saved
##tue
coins
représentation
Angers
variants
étudie
##mbi
##cans
Kot
depende
vocalist
export
fini
##veno
pin
bun
literally
Cristiano
Palmas
##eye
scientist
manage
raising
dimensional
##dess
##tzer
1415
##mede
Tirana
##tlen
Spartak
marry
Dario
755
Buchanan
comptes
Galles
Americas
ras
muscle
Basil
halt
##cephalus
##ttel
Ale
recognised
Hoy
Clements
Stakes
Macau
dismissed
walking
##iyah
925
guitars
preparation
##tons
overseas
1508
writings
Larsson
buses
##tma
Monsters
jp
pes
##érique
##phi
1371
##osis
complexes
##ög
643
##evan
Dmitri
##cock
##terne
massif
##aper
respectivement
élément
##ruf
Birth
907
##dr
receives
##nur
Tome
Cannon
Vo
Gironde
##gri
##éon
Alois
impression
supposed
Elmer
Hendrix
Episcopal
##ruce
Toy
##mda
##aster
Famous
Saul
##iral
Morgen
compound
Roots
Wilkinson
##rui
##rné
##haya
##ilus
##bata
différence
##isu
##itude
Cortés
gagne
Darling
objective
quer
RPG
##dman
1330
Tanaka
recensements
##yton
##dite
##frage
Webber
Automatic
Volga
parler
Mauricio
##roga
accent
##NP
Bones
monastère
Yokohama
matériel
##raca
psychology
sisters
##passing
##boro
##burger
Gamma
##lberg
BCE
##sier
TT
requested
Netflix
##vane
##EP
##mated
Vallée
wealthy
bibliothèque
Bremer
Wine
spraw
C3
##pierre
Rutherford
Uncle
CB
destroy
##fern
##leutnant
Cité
##culus
Leuven
teach
Ebert
divisa
looked
Livingston
conform
Maharashtra
Bassi
##ovine
fluid
##finder
Sammy
réaliser
Could
Zee
Eliza
Xi
##KI
##dz
##mid
Amber
Havre
situa
Fortuna
Jets
blind
Elisa
controls
##sea
voiced
ال
Merrill
##feri
originales
2600
candidats
thick
2°
Oracle
Orne
facile
Vieux
flash
Geoff
##uchen
##arden
##érant
594
trace
enfance
Melanie
faite
officiers
Cowboys
leit
##lkie
##stiques
emotional
Eritrea
Lamb
DFB
tourism
unless
##cona
Dillon
##lion
##rua
ward
##neau
wadi
##ports
defend
nau
##anut
Yvonne
Radical
rester
##plar
deck
##mella
##ctural
979
Laurel
Ky
hang
##flies
##čo
##tase
##nser
##clut
Mirage
moon
grandson
##wach
nationales
Frankenstein
##derd
marins
Bronx
Durango
cont
##most
Honorary
##isés
dramatic
Everett
Ol
##tala
##cension
Erica
Miriam
outdoor
élite
élus
Mackenzie
Turku
##avio
Saxe
Element
Gala
Vichy
drift
bosque
elsewhere
##theless
originated
##prime
##chner
Sunderland
##rü
Juifs
preferred
measured
plastic
gall
##enna
##ipa
##korps
##minato
Reginald
##nari
Virus
Quincy
##india
amino
##irea
##tve
893
##market
##celle
règles
Eredivisie
##toon
##oth
nasa
Bernie
##osz
Districts
hence
challenges
comics
##esco
##ïque
Juin
##phen
Horizon
1410
Forrest
sugar
grows
Gutenberg
Kairo
reserves
##gués
installations
##taba
extensively
Dundee
##ogu
Headquarters
demeure
transports
Cynthia
Stirling
tumor
Advance
##tock
##āt
##ïde
##heer
Gaius
Quality
chefs
ruisseau
Wise
transit
##hawk
##felt
##TO
##cala
cuisine
##rody
##emen
##mem
Cody
Panther
##nkin
Bands
##shan
colonie
feuilles
Voltaire
reporting
sura
##kale
Heller
Pers
summit
Fever
##ulé
Louisville
croissance
##riko
Sigma
monumental
quantum
Hours
Pet
cancelled
845
912
Comparative
Merry
médias
Innovation
Sejm
Selangor
##zent
corresponding
##cla
curva
Oba
Baxter
Chopin
affect
sonda
tato
Browne
emplacement
##laden
##bst
Fils
##llus
plaque
Nana
Voss
resort
955
Praia
tôt
Champs
Suriname
##DE
##anche
##ield
##tile
Fiesta
awareness
parks
essays
##ryl
tier
##wm
Jansen
volonté
rent
climat
##kene
##pest
##aniu
##rud
816
##ceo
##gical
##icient
lien
bunga
##rnu
monitor
Oni
##tical
Henriette
##smen
Davide
SQL
##kā
##rush
Yankees
050
choisi
##bber
##şehir
Kahn
1499
##itum
variantes
ot
Wet
Stoke
##ellidae
Mafia
##lament
développe
Cuban
emphasis
Irina
##bauer
domini
Bollywood
##nian
NM
##epe
##36
##vore
Regio
Wilder
cavalerie
Dorothea
Jørgen
codice
designation
agglomération
##vini
744
##jim
Jade
moc
Corée
##astique
##rvik
egg
Hate
Multi
physician
protests
Riverside
Kemal
##óc
Vorpommern
Gupta
navale
Tripoli
adjoint
Lowell
berat
1280
Hidden
actif
##yni
##bald
Cobra
Rana
reverse
Associate
véhicules
Juliet
Kod
Sied
Win
Pond
dama
##ât
##toe
Mister
Góra
##vald
fur
bataillon
##gation
wealth
backed
##gales
Gale
Grab
assistent
##ider
Atelier
structural
##hdi
##nding
dala
trenta
Rubin
ent
sz
Archibald
Platon
Gus
##ghe
##öd
Buddhism
Bartolomeo
##lić
Vierge
##mla
Andhra
KS
lady
Rodgers
##kampf
catch
##zaki
Bing
Images
##xico
##mbu
##tiga
##arti
Gina
larva
##elio
Horizonte
##metry
Fresh
##ruck
##vated
##wili
pupils
##guer
Hang
##bull
##ltu
##dowe
##ynt
Cooke
Brenda
culturel
##vene
##lani
##lding
822
Effect
Engl
##latus
##vous
accueille
précédent
815
revanche
Spielberg
elementary
interactions
##ptica
##aen
Drums
##nkan
##kä
idées
favour
Angle
##oğlu
665
dili
managing
##sliga
Session
##nome
weak
##usly
4500
beetle
farming
##ridor
##nys
##cone
confusion
Tao
Hannibal
exploration
##bino
##tér
travelled
Viejo
##été
Jedi
##elte
SAS
feeling
Vocals
Browning
##laga
Antigua
Mozambique
Sonia
863
962
clés
##90
##čín
Font
Morse
##bey
##ič
775
Investigation
695
coche
tourist
##sla
Exeter
belongs
singl
Twee
Schoenberg
##olus
Valenciennes
Clapton
##gnon
Milk
Kort
Leave
slo
##lora
Neuen
thin
##udu
McMahon
Reeves
turco
##gative
843
certified
648
associé
convicted
Insurance
##rba
##chn
##oning
##wei
##III
regent
urbaine
NXT
sculptures
Hobart
Hare
constitutional
##ivité
##ector
##stria
flux
Potosí
##ryk
Ir
Wembley
produir
comments
##pool
copper
enten
sank
##éir
##ruz
##festo
##isir
##utier
Tonga
##main
campaigns
Powiat
envoyé
Lopes
##inha
##send
formats
##jø
##cross
calendar
##come
##fir
##zini
Estádio
sembla
Bloch
##kova
salon
capilla
##dong
flies
##fors
monthly
mesura
produire
Carlton
fleurs
casting
hell
Mor
##mati
Mozilla
departments
evolved
Same
SNCF
Schultz
Taj
Villanueva
aust
1066
Playboy
reggae
telling
dame
##nth
Là
718
RM
##bain
##üst
Monza
titulaire
Thousand
##niques
##ppel
Barn
##nac
##zog
Thornton
Pluto
Comédie
Fabian
fastest
Bet
686
tomba
1435
1509
Lovers
564
Yunnan
##CS
Watt
Insight
Engagement
##iard
Poaceae
Meredith
essai
reviewed
792
specialized
##entat
##tke
soleil
##lance
Rosso
Franc
Pino
gods
Kristina
Rubens
##eté
2200
##trat
##ysk
1365
Kur
oxygen
Amin
Zen
##ûte
Eventually
extinct
réussit
Charter
tables
natale
##ride
negotiations
random
valori
Territorial
recovery
Alec
Goiás
##sions
##thal
##eady
killer
##ggy
pounds
AFL
participant
Alvin
espagnole
##talo
##andi
##familia
worst
Fuentes
##sama
Saale
##smi
plain
shops
##yf
Remo
estimé
##dog
Zeeland
1270
Contra
##obe
702
Mathilde
contributing
waiting
viva
##śni
hear
##quina
cache
##fjord
Gift
puisqu
Mori
Deluxe
Petar
##uler
rencontres
Sucre
wrestler
Uwe
Ridley
##às
##kau
##zis
apprend
exactly
Passage
##OT
Basilica
##tuna
sitting
1101
Bursa
##yuki
##gnan
##éologie
##forte
Traditional
##ithe
##HS
##asu
##bera
Condé
##bry
##eño
##sena
Barcelone
##sford
##servation
Euler
religieuse
relegated
##kert
##rya
hét
##enis
Agreement
##wder
##abi
fossil
##quilla
Straight
Gers
Witte
equation
Wolfe
##kaa
732
##dati
Prometheus
##lgar
describing
##AA
Conflict
pointed
##issent
##iller
##placement
dieta
##aji
##lever
assure
symptoms
##lium
##nini
##lesia
Bela
##mone
execution
SN
queen
731
##rgan
amounts
Lexington
Toby
sky
Qin
guests
slova
752
##wley
essay
Maas
011
##uns
Saarbrücken
Friuli
PK
Spin
dramatique
Prayer
##aft
AI
##ïdes
##meyer
Antoinette
##ographie
1360
Aero
Brave
motori
Townsend
##anke
Simpsons
package
Pepe
703
commentary
##pere
détaillé
##êtes
968
fighters
sure
Macintosh
##ulant
Harmony
Houten
Haarlem
Gallen
compact
##lard
explains
moderate
substance
assessment
##ticu
##sity
Juliette
honors
extend
jardins
restantes
##emos
exhibited
Erasmus
Scream
##wiec
CRC
##usel
sna
Workshop
##kob
##itter
Raiders
825
Antonín
Molière
consumption
gear
##tski
##lades
##poser
##logist
teste
MBA
1290
PSP
##tated
Bou
node
victim
##drome
##fying
##kowo
penn
##mino
spécialiste
##orter
theories
##nité
chan
##pedia
##plice
##vision
Ardenne
Cartagena
guardia
valeurs
filming
##niti
utile
##cisi
##eco
Especial
victories
visas
##UE
Weston
Feature
Duarte
Madras
aime
AllMusic
Herodotus
##rint
Astrid
Houghton
Gerardo
belt
Hawaiian
Timo
ordu
ermita
formations
encourage
##cant
Adolph
Turks
XXII
##pore
##yg
##yst
Medium
##monia
##cité
tehsil
##jot
Arias
distinctive
##tient
##lg
##rey
occidentalis
##tof
Serrano
##volta
approche
##bong
Himalaya
Sem
##KS
##rophe
Yard
gong
accueil
contexte
##phine
Compton
Chao
shock
##kiewicz
##nero
legislature
Verdun
XXX
8°
Monet
##kind
ret
##sino
##truire
##hild
Levin
characteristic
repris
##ärt
victime
##buri
##ncé
reducing
Tromsø
##uchi
inherited
##pli
##urd
Armor
Sting
Shiva
intellectual
##LD
##uario
Caballero
Unity
Bat
développer
verb
##bergs
##usal
Budget
majeure
economica
patrol
##sées
Speedway
Instrument
Matter
dessins
GE
##estre
ask
##eniu
##iola
##mique
enemies
panorama
Presents
Gujarat
Thérèse
Filipino
approaches
Kimi
cutting
perde
##kr
austro
Method
Malay
Marks
##bow
sile
slowly
Autumn
##lean
Membre
Tarzan
TC
graduation
##odie
Wilkins
crucial
Libertad
Dust
Nobody
revela
incumbent
##gano
Anthology
Léger
##vot
toile
##hida
##rupted
##dara
Bomb
##clo
##rilla
Malo
Heidi
Newark
##urn
Hennes
Sigismund
Uzbekistan
statua
sensa
participating
drame
franc
assists
708
814
Cedar
##fies
inducted
##diti
inventor
Affair
sable
İzmir
Amiga
CW
spend
Mito
##bni
1320
Patton
##pop
Nota
Ling
Plain
Bez
expédition
##uine
##did
Investment
Robbins
ren
##none
Chávez
centimeter
Bhutan
albedo
Doubs
Rough
##lac
Depression
Lisbon
Nieuwe
vos
##wów
##ml
##OK
Silla
Sakura
interim
bacteria
##aso
Seal
canadien
tissue
##loop
narra
Pages
##ilu
Drum
disciplines
##lver
##nelles
Stevie
Samson
paus
McCoy
741
Bochum
Genoa
considérée
##tery
Melo
lift
##itarian
Sorbonne
FIS
##ilité
fondamentale
##ssing
Dordogne
earthquake
Rin
##kang
Ent
Weaver
Lothar
Ralf
##stab
considère
Takahashi
Ceylon
1130
##PD
##liti
Adele
Novak
protesta
1390
décès
Giuliano
##ulla
cents
##lub
##uai
Nairobi
attempting
##mita
##oby
##tane
##tones
permitted
Helene
Skin
migration
##drich
prosa
914
Lifetime
étage
##rivé
Fantastic
prêtre
TD
approached
Ancien
##qin
##nty
forty
##schi
opponents
##idia
Crimson
##owicz
Gallagher
646
##zira
##pend
Nadia
motiv
917
Been
compatible
##bella
DIN
Bud
TN
fonts
681
2300
##cchia
forment
pedagog
coat
vrai
possibilité
refuge
Baronet
sleep
Venise
Forte
Ruf
norme
Mag
ede
706
centrales
##fici
interpolation
Revised
Nordland
gra
Kuna
breeding
Sarthe
Rocca
essentially
Dome
depicted
805
Put
##havn
##tinent
Button
Lowry
choir
##tese
orgue
Rockefeller
644
communaux
inconnu
winds
##wah
conscience
mand
Lucie
defended
nose
##opia
soi
##awan
Ivar
Weiß
Associates
boot
Yin
talle
pne
983
exit
Ruhr
outbreak
##hagen
##hru
privée
burned
##shin
aider
contraire
forts
sabor
735
seas
Satan
departed
représentants
Toulon
Triumph
affair
Mandela
Tampere
##hali
Général
leve
##ibi
disaster
##onos
RIAA
jan
Ching
Kelantan
##rys
##zur
Gabrielle
Independiente
neck
dena
pasta
##gest
Patrice
722
1497
battles
652
coral
mouse
##acho
Milne
gent
échelle
##vesti
##šni
Lok
##raria
Aube
RA
chip
identité
horn
maxime
Benin
##itive
##ciano
Jacobus
Lippe
##bosch
##stander
659
visits
Active
##ason
##ovy
683
##kua
##éki
meat
narratives
##ebe
##kini
##SH
antique
Beaufort
Bentley
Relief
nef
903
986
IRA
##fare
##sore
##erts
##fio
##iling
intègre
Host
filmer
Decca
Isola
parasit
##erland
Beaver
##ån
Rioja
Dynamics
spots
proof
##arsi
KZ
##unti
##âtre
enrolled
751
Fernandes
Stora
minime
##houd
##sede
restauration
ruler
Rijeka
##abu
##cution
Lim
##quate
##chang
Cum
Calderón
carries
##hio
matin
Colombie
##laire
Blume
##bala
recueil
Sabha
signé
artwork
##taine
##eek
flew
centri
détruit
messa
##elius
vende
##ateurs
Figaro
milk
Ars
collapse
poésie
##load
Ivy
législatives
Pasha
snow
##sette
ado
informed
pieds
##cter
Etienne
##ndorf
globale
##roman
##stir
historians
##blement
rot
##ewski
Nate
##nano
Mémoires
Soria
gallo
Biennale
Havana
Monarchy
worship
efficiency
Pepper
##latt
FDA
Moral
Almost
Marquis
##strar
##bee
Afrikaans
Fabrizio
initialement
713
##riet
##dano
##pted
##erate
##uida
Vikings
appelés
ordinary
Núñez
basin
##hanol
Emanuele
soap
842
Hume
Adama
Stahl
Flames
innovation
##foro
##oin
##uation
Ty
##tting
crosses
dud
Communes
Bahamas
976
Krone
687
##pôt
difficulties
Panchayat
specified
Transformers
##ünn
##mack
communist
organismes
##tria
##kade
consumer
##turing
Région
automatically
##otis
drives
Choir
Sichuan
##utz
pitcher
sait
Writer
Civic
##taro
##sworth
doctorat
##nks
##pata
automne
Bosco
lectures
##ryn
FR
Veterinary
Antony
connaître
Moody
##hana
##mande
SB
##sers
Moor
##dona
seemed
étrangères
spelt
Nathalie
##gona
Camino
amiral
Sar
2100
Areas
Guam
##marks
##ination
jag
##cting
##ddon
Manson
nap
Sinatra
Sheila
citizen
enforcement
Others
generals
##ktop
corre
tapi
religions
##tec
##yclone
Spa
rendu
interactive
nah
primaire
##radi
Aquino
##dean
toa
##anno
##was
Wen
##lick
##tello
ukr
servi
NP
Masa
Marriage
##gier
Jessie
##roat
##rün
Canadiens
Sal
forêts
diplomatic
worker
Sonne
Speaker
retourne
676
Taip
vinyl
integration
##gios
Found
proves
##curs
##pid
Selo
demands
interesting
##thetic
attendance
Maximum
##ikk
Gemini
styl
##parer
CSU
##hoda
##dova
motif
Hajdu
consultant
Pike
seuls
##rales
##ciem
##iments
blancs
specialist
##uele
##tanti
Clubs
revival
##zara
kami
logic
Documentary
Sense
valid
haven
Danielle
Published
Yonne
##ntis
rpm
##state
stav
keys
Jang
778
signals
##bron
empty
Eisenhower
Enn
847
Materials
Piet
gifte
VV
855
Duisburg
earn
extends
##cide
##mpo
discours
rayon
semifinal
void
Vettel
##fiq
##WD
Chiefs
differenti
##oggia
##posite
KV
prim
Dumas
##vait
Radar
##quam
##ciformes
Patrol
Starting
libretto
##meta
Trip
Duran
supporter
Naked
Trujillo
##orno
Missing
##iensis
martial
modifications
##ź
génération
supplied
Ranch
arriving
Carlisle
##cratie
##power
##tour
673
##zler
##ssia
##cence
##rooms
765
762
Lutheran
tribal
paroles
##ipper
Puig
disparu
##croft
##lied
Minerva
Arno
vicina
Ter
Ugo
Zappa
##gst
##chta
partis
##istrat
Bermuda
Putin
Nikki
rende
renowned
Arles
##boot
##hant
jurist
Patria
aboard
roster
ministry
removal
appareil
##zuki
Moulin
brun
##hna
Midland
bloc
Elaine
simultaneously
##gino
##tans
fifty
wasn
Shine
joins
Cicero
torpedo
minori
##tman
domicile
##rchie
##riat
##rima
lunar
Consulta
Cali
##mage
742
Cavalry
##dure
Mercer
Period
grega
Tibetan
quitter
##lité
Eminem
996
##ulos
##ior
Westwood
juvenil
Noise
##nine
choses
PD
##gården
Terence
cavalry
examination
Regia
##cante
pioneer
##cism
771
positiv
##tention
EK
présents
1518
Dani
##tary
escaped
##bation
##hers
651
649
Photography
waves
Antioquia
Franken
1241
##CC
##oche
Sachs
algebra
arcade
siege
Crimea
Mach
TNT
Pulitzer
##laska
Actors
Daimler
Parliamentary
Rage
Christen
##emann
Coll
Fondation
Seen
##resi
Clint
##fis
##hammer
##lings
Rubén
Valois
Harley
Traffic
Understanding
existent
missiles
##UT
##rner
Spectrum
##haru
806
britanniques
##makers
Reste
Addison
contenant
manche
Yr
##otto
efficient
Nová
subtropical
Civilization
Pons
Picardie
triangle
Borg
##asto
strand
##ained
##illy
bel
##ild
756
Download
##viennent
deporte
721
decorated
sentir
Coalition
##acon
disposition
Oberst
Jul
Yourself
Surat
murdered
humain
##haga
##polita
lancé
##suna
E3
Ribera
##vais
pulled
Osborne
Berge
hub
##mari
Munster
Wilaya
circuits
retrouver
##plant
établi
##ilio
commenced
Clausura
grass
654
##miu
B4
Unionis
##torie
##mbia
##roux
sorta
sociali
cérémonie
gases
tested
Dor
Tomé
##erk
Coral
Guards
Enough
consacré
ly
##verso
Sanchez
##RE
Pace
##nommé
survival
##GM
complète
TJ
Survivor
Ola
lung
Bello
Fender
##cius
width
##read
Sharma
minima
wish
##menes
##ptat
Amendment
##umont
Hollow
achievement
Photos
Strom
namely
pico
##äste
Sunny
##nma
Harding
Panorama
faster
Titans
##utt
##ptères
Easter
resignation
connects
Poor
estimées
Ponce
scala
Glover
##uss
Muse
##nesi
Lech
Nil
995
##round
affirme
##goa
##eption
milliards
difficulty
##kro
discrimination
1469
absolue
##straat
Diversity
Soft
##sance
Jasper
##enter
pointe
##laya
Khmer
pouvoirs
Rhine
##rmen
Bride
Treasure
Kaplan
affiliate
##eille
##alog
Wrong
##kre
lied
Syrien
##ffle
Medellín
hali
Sale
Garfield
chorus
ministers
##dok
entier
##lite
##ława
##sari
Warfare
bog
Fidel
Jenna
mène
##arf
Oleg
utca
##iul
duel
Anatomy
stub
Path
Pernambuco
individuelle
##ysis
pourtant
venues
##uth
##osus
##rosa
Activities
Montagne
Forward
##ceed
Cope
##nzi
##stal
##olver
Inferno
materiali
nominations
proportion
Tucson
Ubuntu
##cribed
745
##xter
Had
custom
##nye
Unknown
Effects
bearing
##uku
Assam
##efer
##ilien
##järvi
##etus
##iski
##pso
connus
Patriots
##jed
Leadership
Dur
Serial
##inski
##aton
pen
##uara
enne
Michaels
topographic
##stid
Katy
Brod
discussions
##raphique
Wonderful
##nymous
##kina
##rmal
adolescente
aware
invention
nephew
régionale
2000s
##yman
Tier
1348
cristal
##bone
Eternal
protestante
frontal
Gal
##sur
##uas
##uvat
ambient
682
##risi
Archie
##ndri
BY
Alpine
undergraduate
silent
##bier
Docteur
##trus
Baie
##posing
contraste
réforme
Allemands
##erman
##bita
Acoustic
Leonid
##lén
Serbie
cluster
663
légende
Brecht
abstract
flower
Dickens
##wati
switched
Pakistani
##ăn
##dest
Process
##mira
Sawyer
##nj
Wanted
##iest
##yda
sélections
Moro
##pher
658
relating
##nating
Slim
##gami
default
##vian
Brunner
Cast
Logic
Score
databases
##nesia
##yden
exhibit
Classe
##fession
meur
Sirius
ARIA
Aire
romani
Pola
##uben
PSV
abrite
récit
##LS
Lawson
Monterrey
collaborated
662
Monti
##röm
tap
placing
Emirates
Snyder
##ophora
Lourdes
##torium
Meiji
Fragment
##yai
Concordia
##öy
Bihar
Worms
sk
##uv
Alf
explain
résidence
##sung
Paco
bombing
captura
thesis
restrictions
Réunion
tuy
##gora
Lana
##ück
Applications
S1
laboratory
##guera
comparable
langage
barrage
delayed
Thursday
Lafayette
nomme
Esperanza
##zul
##ipo
nickname
curve
##marine
authored
meu
##llion
##wels
##iales
Sign
statues
prennent
Tong
consist
Marka
phases
##ipes
Federer
criteria
##tren
Worldwide
##reme
Intercontinental
Behavior
tentative
##ntation
Chandra
Borges
Problems
dair
Annette
administrator
Omaha
beam
Polar
##each
##moni
étrangers
Cherokee
Odyssey
Perm
specimens
Margherita
##stice
étapes
##hov
Robb
##osu
nominal
2021
##hada
##ïna
Chain
##mante
Bamberg
Baum
Sep
Urdu
##stante
Motorola
##NO
Midlands
##ump
Ama
sending
partage
##érité
impériale
##laine
hydrogen
895
disbanded
tournaments
stanza
appellation
##raient
Cindy
totalement
Camden
Monitor
dress
##cam
Palomar
##dao
##kil
719
##lug
##ceps
Loan
historically
Aguilera
##reng
A3
Universities
##IX
716
estime
##uite
692
##itant
cool
KO
##atos
##atories
709
Julián
##sker
Firefox
Cáceres
##masi
##uera
Anatolia
##uye
##buran
##pende
Sole
##nensis
##erus
Kylie
allemands
democracy
##dish
arguments
##illet
748
Events
Morro
Ark
##ribue
Cowboy
Plzeň
Niccolò
Palo
LCD
Shuttle
reflect
##rami
ensi
##53
##nès
915
##lates
Pascual
Sands
Cleopatra
##otte
smooth
storie
bra
induced
keen
Vive
##veo
Bom
##icola
import
provisions
##style
Largo
Marca
Outside
##rvi
##upil
Novgorod
junta
##gola
##ïne
##anga
##big
774
Gol
Analyse
allies
Halo
ken
Reason
écrits
##rgers
Hugues
origines
efficace
exile
##mits
payment
##organisation
Przy
Nomina
##efa
935
Leroy
Volleyball
municipale
malé
##vár
accepte
##isal
pub
##cise
Administrative
Sexual
supra
##EM
Atom
Integration
documenti
doc
Soares
##mna
Gender
aims
stops
Arlington
numeri
dose
##cible
Cats
fon
##KA
##elin
ER
ferroviaire
##sni
oriente
quantitat
volunteers
Blanchard
exhaustif
denomina
##ópolis
CAF
indien
adventure
Details
##caire
##klo
airline
Kathy
##vres
##trie
Banner
VIP
781
improvements
Roux
homi
888
##quement
Everest
##hua
804
##dli
Nightmare
colpo
dure
electron
marquis
##anz
fat
footage
1478
plis
Dir
##yde
dogs
Hohenzollern
Passeriformes
##while
gardens
945
prit
Else
Schröder
Slow
hed
##dust
Afrikan
Poker
pesos
établir
deemed
instructions
##bica
wire
midfielder
push
##tref
##zey
Fram
Byrd
##83
##nish
##vač
Aria
photographie
##yte
Twins
##iselle
##erson
##hurst
Growth
##gres
preliminary
borde
recalled
diagram
##rrell
sized
Fins
##rland
occupa
##wide
lover
Barra
##yed
Vieira
##alus
##curi
Damien
##atar
Bogdan
##sbury
Rossini
quartiers
##stitution
Fighters
Danemark
estima
##rip
##zora
Moreau
Grass
##cological
démocratique
647
Kobayashi
leo
Britten
##ciente
bombe
Maud
##bies
pollution
marqué
Wanda
KGB
Guevara
Mahler
voler
Feeling
breaks
présentant
agree
##villon
Bray
funk
Josephine
##tau
##inaire
Downtown
Drôme
##ibility
drinking
Muhammed
##ueen
Partia
Valea
Stara
lakes
729
Jiang
##TF
prisonniers
##atica
##into
##mach
867
##grapher
Curie
niveaux
piloti
736
##hasa
##reti
Aid
Fans
Violence
rocket
Antarctica
##uate
Bengali
##32
hel
présidence
669
Brit
Suicide
d4
##geri
Stafford
##zzy
Bord
feelings
viti
seeds
1482
Lutz
administered
763
dehors
##čin
##fydd
Nike
Yucatán
dra
##ibo
inspiré
724
Massacre
Mérida
presentation
##lins
troupe
spectrum
primitive
##VE
Saddle
firing
diffusé
##boat
1368
Chun
queue
##umba
Magnolia
dessinée
Willi
cerebral
organisée
placé
##idu
Theft
perception
protéger
##eig
behaviour
Aleksandar
Kap
##sele
MX
displays
##saurus
resumed
Brahms
784
DP
garage
rex
regroupe
Wielki
1170
Begin
Hana
Mono
##backs
rues
posts
Histories
Ove
venti
##rend
Computing
Minogue
##arium
Charlton
slogan
##uary
##dock
##pod
##villa
wars
Ritchie
##listi
##fang
chiffres
##quées
Trofeo
vall
Ata
896
##assen
Sixth
Cam
##udou
NG
Lynx
Dorset
Rochelle
3e
##quito
IFK
696
##reg
##β
ESA
Stat
ERA
Rabbit
définitivement
##itori
Levine
portions
Cafe
Morten
Coburg
##chino
##sell
Conti
strict
743
Lay
##beat
##iru
819
basée
XL
##stellation
##frica
progressivement
##ometer
Hervé
reconnu
hung
##hler
##eber
Nicolai
M2
traits
travels
Ponta
##itari
proposition
##EL
##stos
##ooni
telephone
##cons
678
##raba
Colony
diabetes
dissolved
attacking
786
Crossing
Kris
Mineral
Juliana
Clear
Opposition
taxonomic
##djan
receiver
Boogie
929
##nilla
numbered
Revenue
1461
Clarendon
Matilda
eat
participat
Flor
copyright
Marcin
885
Barbados
intégral
1328
Danger
Kark
753
hectare
grain
Albuquerque
Králové
creator
##blished
Casanova
Kafka
Indoor
Lucca
arch
Flags
reed
##ffre
##25
Aujourd
Gall
##ocha
celebration
temporarily
##nanie
closure
kills
##enic
##PG
Meta
Sandro
Mask
##stream
uni
##NS
##gion
##ntou
Karate
elevated
##bato
##corn
##gala
scénariste
##cay
Mint
##ficial
##terna
Principe
##cae
1507
sierra
Beckett
Farrell
cori
##erg
##sissa
Megan
##atic
##tly
##ttage
fant
##ours
Mental
penal
876
##itors
##kata
PCI
Amer
4e
civils
Caldwell
casualties
referring
cliente
##solidated
1389
OR
employee
brings
tenu
##iot
UFO
HTTP
chat
VA
marin
##now
807
657
Pallas
thereby
Valerie
Gundam
Peu
colline
##uille
cordes
Fool
Knowles
##brar
##cient
##olie
interprète
sportif
##ologique
crops
drink
##gination
698
sujets
JB
Panthers
##holl
##stitute
suivre
##unes
##juana
Pará
##wag
Almería
dancing
environs
Fallen
exhibitions
Fokker
abolished
publiques
##nard
##eun
Irvine
##ecie
##giques
##odon
##rgo
Og
Segovia
Gilberto
Creed
Eleven
Besançon
Flint
##pres
##vela
Alcalá
tensions
##lip
Dolly
##lord
Salinas
Mirza
propi
Fonte
échec
776
Charentes
Jacksonville
Ames
ferry
quick
consommation
motto
Malone
Teruel
intra
Elections
dich
Griffiths
Different
arrives
B3
tuto
écrire
##33
783
chapitre
3G
Drop
mastering
poteri
tributary
##wai
contracts
##peri
coups
féminine
Arabian
Ga
##hore
##vsky
##xus
graphics
jog
sectors
759
interprétation
Nikita
Nabi
##rins
Jude
lig
blad
Glas
EL
##érica
997
principes
##fère
Tamara
entity
##chappen
##forced
##odia
documented
Bahá
Nakamura
indeed
photographer
##borne
surge
##ütt
##pfer
##reste
##ôs
Vide
##lul
Joker
Does
Augustine
inverse
##UN
vars
pra
Temps
ah
##boa
Coffee
969
012
972
Planeta
stability
Turquie
Sources
thanks
Listen
Soler
Piece
morta
Valentina
gathered
Chorus
Velasco
##nture
protocol
981
Gaspar
Colt
coffee
##caceae
diel
##ernal
##dalen
valuable
##85
prepare
##imen
##four
Burgess
Rebellion
Zack
Bend
##sita
##tton
improvement
##rior
##odio
dense
TM
Atatürk
Belles
terrible
tenant
##rail
RSS
prises
##conde
Wittenberg
##bod
Wer
GS
852
Bjørn
Risk
allant
1477
Above
Bataillon
mainland
958
Curt
issus
##posito
##she
Telugu
##lgo
hospitals
planète
Aguirre
##nière
##sequently
864
##sili
Handball
835
donnant
##tail
Luise
Eriksson
##ods
poll
pushed
##lott
##nante
936
Corporate
innovative
Falco
Yong
##anski
procedures
elder
armé
##wil
Descartes
Oda
##oed
Landau
immédiatement
Reine
evaluation
lesquelles
U20
étoile
##chers
Demon
Canto
##ğlu
Bataille
volleyball
##oman
agenda
Samurai
Leaf
Tuesday
coaches
Gertrude
1467
##pala
##riba
##chef
##rase
##lpa
Richelieu
924
Anglican
Thriller
Malaya
parallèle
align
##čice
788
shut
verre
##VO
verte
Susanne
Boiss
##piece
Louisa
bons
voitures
matrimoni
beni
Orton
##plus
##lante
Cesar
secular
menu
Archaeological
##yote
boulevard
##hter
BT
sixième
Infinity
Bissau
##pern
##zai
Contributions
Argentino
##mmat
723
Sylvester
libr
sitcom
##ywa
correspondent
##dion
##graphs
Hoover
Wizard
audiences
événement
Deportes
Jäger
##trica
Beni
Juno
NJ
##pik
summary
##teni
tér
Built
##tev
##plicit
alde
fonctionnement
Isso
Ker
PIB
Yann
radial
##nnas
Sena
quoted
touchdowns
Buckingham
##wet
Hotels
divine
##kku
Fang
Villers
##taining
opens
Hradec
Moving
runners
##nstein
Coco
##icidae
901
forti
hybrid
Afro
##ndres
##loss
Mitch
relais
Benton
sentiment
##ugi
Cargo
##bela
##rore
##veau
##saka
Commune
traveling
905
professionnels
theorem
##iati
Apart
##stati
##zee
merely
statements
stored
exemples
Entry
Tie
Connection
##lba
##lb
Camillo
pension
Lone
Pardo
##sah
##tym
verbal
Jusqu
difficultés
princesse
##ulate
recta
vint
##estan
secondaire
bridges
tableaux
mori
##ième
prévu
##rising
doma
literacy
##ssar
Ashton
Parallel
maxim
##deutsche
##anen
##nting
montagna
988
readers
##raux
mentions
##rnis
Gao
dimanche
877
##yum
edit
Shake
Aerospace
domi
##otion
warning
##inci
Lüneburg
mono
##city
##āna
1392
##gène
Dach
MAC
constituée
Message
956
SO
tenth
Limoges
flood
putting
RE
##ému
Ramsey
protagonist
##jov
compounds
1190
##nister
##terie
##sional
693
discontinued
Madness
Livorno
##maid
barra
donnée
armate
oval
parade
Marley
Yukon
max
addressed
lifetime
lights
fatal
Jericho
conférence
Seminary
hameau
##bn
Carnival
Karim
reprendre
Hause
dj
##áng
##achen
Af
Ambrose
ennemi
Twelve
fédéral
CDs
Pob
understood
décidé
##rack
##ggs
Arad
PG
##imet
RB
LR
Rad
curriculum
##ütz
##vue
##last
vitamin
Olomouc
Otis
Dôme
##alin
Femme
Fairy
##pagne
##nance
ry
Booker
Qu
revolutionary
Ak
##beek
984
812
Treatment
##niya
Bruins
Constant
Majesty
citing
##tins
697
Ancona
compiled
origina
##û
Rings
Demi
RN
generations
diplôme
Arcade
Doe
Floor
stabil
##dden
PL
Sanremo
indicating
##istra
Anastasia
finances
Leibniz
Charity
Nelly
Zaman
##rub
##éri
Fonseca
Ryder
semifinali
pla
ura
Battery
pensée
cycliste
Hiroshi
Should
1346
Meilleure
Talking
Affaires
Buena
enceinte
##kak
##oides
Meier
civili
Computational
Semi
##perate
prestigious
##ctica
insectes
Andres
poèmes
salles
##bc
##hoek
Loi
##ection
##dactylus
##rko
Bayreuth
précédente
##bour
Lehmann
25th
Avon
Yet
pau
##sista
Huntington
ultra
Fernandez
compensation
superiori
réseaux
##aud
##hibition
##ås
aventure
Més
widow
##nick
824
869
AH
##passe
##bond
##oyer
Flow
Côtes
##eritus
826
Arco
Citizen
Diploma
1425
##rpen
##raaf
##IE
trick
chacune
Allier
Dominican
Ime
Namur
##gates
Bloody
humains
discuss
Bangalore
modell
Hobbs
Siegel
modification
##plications
Dove
trafic
Egon
quantité
##lesi
Agatha
visibles
predominantly
Ille
utilisées
coin
##ints
Rifle
mathématiques
##pression
##ïnes
Steen
militante
1402
##hom
Monuments
##22
refugees
##mse
Boone
Hutchinson
holiday
biais
##bidden
Guangzhou
Mexicana
néerlandais
##sart
##vient
Apocalypse
Nevertheless
Susanna
Rhys
sociaux
drag
tire
##fr
Reservoir
##hina
Ulf
reforms
##ahe
Huy
convinced
synthesis
##arri
865
finne
795
Peer
Propaganda
layout
tchèque
726
multiples
Schmitt
##issant
020
rivals
coached
dynamic
peninsula
auquel
sid
dissolution
recruited
##blo
Études
##duce
1455
862
821
disorders
courte
Esa
mette
##kwondo
##êt
Quintana
Nile
1310
##allo
partisans
établit
##tella
Lens
archevêque
1349
##rder
positif
manufacture
1468
anchor
conversation
Fonds
salute
bright
fonda
consensus
vendre
Oude
barri
Britton
Loving
tasks
1282
Honoré
Tomb
perceived
##news
##pire
asking
possibles
944
Liban
failing
normes
##rices
grana
851
annoncé
1481
broadcasts
##ficie
Maire
heir
RF
Rohan
Organ
reda
879
##tira
Maj
éta
##OX
erre
Cantabria
##outs
RJ
3°
democratic
Ajo
Andra
TS
perte
généraux
taxi
sustained
comprenant
##gana
drove
A8
Corey
lent
masses
##kow
inscriptions
##TI
##hie
##ticus
angles
Melville
##mori
##quire
##oven
interval
##cked
Hanson
882
Rep
##ads
Hyundai
latine
Christiane
##dson
Mitt
customer
##qe
##lendi
##ordinator
trap
Malaysian
montagnes
##tial
1185
Cheshire
##aise
naît
anima
##prise
##note
Stream
silence
922
Moll
##xit
Teacher
##cking
Gonzalez
cinquanta
Krause
porté
##azzo
##cim
contribute
##reden
961
Fel
##quence
##mig
##orp
maintaining
871
Rote
creates
réaction
Caspar
liber
849
endet
thèse
Dre
##icular
preserve
pêche
Faces
conservé
##hwin
689
Plato
roca
Cunha
actively
alphabet
Objects
destiné
##amh
##äl
Territories
Goal
##leva
Models
##achi
##riche
827
impresa
##maire
Niño
##lace
Presbyterian
Sagan
Sioux
Landing
##llum
Moran
Seni
##jà
Conservatoire
##UM
##xte
européennes
##ussion
Pacheco
Fry
traje
paint
##vola
rôles
##éna
Roads
vulgaris
sweet
##zoo
##ñez
##lasa
Phan
respecte
Gregg
Resistance
Hillary
Lina
##arty
Anura
Cochrane
##brun
Gwen
Bila
##gom
Premium
troubles
##cally
##guan
opinions
##rrow
##caria
batteries
correspondant
Programming
Auge
##bán
##ael
kit
Vene
##yin
811
Delft
Hardcore
694
##media
Leif
##lts
Clash
Sheldon
Cavendish
##smes
abilities
diffuse
Astana
Orchestre
Ringo
shipping
separation
app
##lux
##udia
gai
##gique
Hewitt
##IB
Internal
Sharpe
challenged
Pode
operators
##ctors
mondiali
autobus
propriétés
##ntures
##ows
##rber
celebrate
extrême
tante
Acts
45°
Ng
Jacobsen
##nders
Oxfordshire
Courtney
Zelda
Heide
##sumed
accommodate
##ivet
Intro
thirteen
MAN
Peck
européens
##urai
lion
WrestleMania
##tedt
Erie
Hyderabad
Question
pleine
Baghdad
##effer
##égi
corporation
##fique
CN
explore
##éen
Treviso
dealing
##anique
Vasile
##ndal
##pro
##ustrator
portée
Rufus
##ertoire
athlete
voyageurs
absent
##kja
ICC
##sua
##icap
Km
Symbol
853
phénomène
Turing
Godfrey
confused
##semble
##ddle
##heur
Lau
Norvège
sona
Camus
graphic
##mospheric
Came
afternoon
Boa
Ramsay
##lici
CSKA
Escobar
distant
##echa
##edde
Application
extending
tractat
contour
##ogs
##egan
##chat
Briggs
saha
Update
Martial
Midway
Sb
##adan
Putnam
descendant
lave
cuts
instant
##tez
tau
Celtics
##vées
termen
sensitive
gabe
réponse
remembered
communautés
1476
##phyllum
##racia
Rumble
1479
Tunisie
##nyme
facts
772
speciali
##orax
Magnum
##nuo
##tuk
##PR
minerals
entro
Messe
Sabrina
enregistré
##ngin
Minutes
##itaires
1472
imprisoned
##hah
Hundred
Mansfield
Thatcher
algorithm
misi
##psi
728
Swansea
866
FX
hautes
MF
incidents
tenue
##jano
##rette
##leh
Barros
mathematical
##ussen
Anvers
##love
##foot
##lées
##ash
##vart
shu
##oured
##trine
##ucha
Devi
artis
révèle
MPEG
Tehran
##IR
Genera
Girard
##pado
Champ
Essential
##pou
nearest
##mmy
Nirvana
Blois
TB
##rmo
Dušan
Udine
Eastwood
959
##fjorden
Aleppo
Dimitri
Hubbard
Ora
symbole
##zco
##anka
##élie
##ough
##nast
numérique
osi
##vitas
##dox
Rojo
##quen
aur
intensive
Estonian
donat
904
##ignent
##oster
##figur
##rv
Liv
Sigurd
##stock
Troyes
Mondiale
iPad
Kita
1444
Dry
Provisional
throw
##matu
keel
##zca
deo
##ected
Ano
Lugano
##latan
hasa
Fries
Vall
mixture
belong
rookie
neighboring
Wim
##ntie
beer
informal
Petter
Saab
##olio
App
##imes
##say
##lander
shorter
Ehren
##rae
##vori
Estrella
bore
academy
Hayden
militants
##bari
intermediate
Terme
Bring
Statue
##öv
promise
##rott
CSS
Elvira
Marke
##llan
025
##aio
857
trouvé
Products
M3
conté
##roix
##verte
##osse
1160
grants
comprendre
distances
Virginie
Vendée
##mula
1496
794
##icher
Darreh
autrefois
##hera
809
Target
conçu
878
pago
##isie
844
Fork
Habita
##ceau
reception
##égal
Assassin
##cesa
##vr
ED
##dosi
769
##shing
requiring
CG
entrer
goud
##boll
749
##erling
beaten
Maribor
841
Cream
µm
##aque
Mortimer
ère
enregistrement
##rens
##fig
##nial
focusing
Ik
Loves
##oš
Festivals
Asti
Sometimes
fewer
Inge
##ductor
reflected
ARD
##obia
##bern
realized
Muda
amateurs
zoo
##23
##ématique
perse
##91
918
confidence
generate
Castile
##koro
Rudi
nit
##erda
GA
Schmid
##vator
##raire
Mord
##unter
Nagasaki
Abruzzo
trombone
921
Vilaine
##ntos
monitoring
1474
Kawasaki
902
Teenage
gala
##oral
##volo
Violet
argues
Northumberland
##nelli
Banca
jusque
Pin
##65
761
athletic
Sanctuary
raconte
##mière
##amas
Laser
##ogh
Edouard
Valentino
##poon
##chmann
Soo
Parco
warfare
884
musiciens
ranges
Kick
894
##ūt
MH
boards
receptors
Watkins
##ratos
shots
friendship
##GP
Rowland
precursor
gel
Ethics
Roumanie
pronounced
bicolor
developments
Inf
independently
##aret
##oran
Ardèche
Cours
##llé
indo
Neckar
occidentales
4°
677
Badajoz
Davenport
sensible
stran
Friesland
Sharks
probability
x86
Isis
dug
##lbe
Lua
ET
invented
reproduction
Brennan
occitan
##nku
##valent
##pensa
##īm
##vajo
Skinner
trône
Corinthians
pensa
réel
##deira
##valier
axis
##udis
##stici
MT
Reds
libération
##trition
Mehr
legate
Stanton
enabled
Saw
Hilaire
Hulu
directions
##hani
Tribe
clocher
Willow
##fiti
folklore
rein
Gaelic
determina
Maldonado
VR
Nouvelles
lying
839
tuer
1405
Cremona
aventures
Dynastie
##rec
971
927
founders
##çons
Dayton
méthodes
swing
noter
vaisseau
1347
##égét
##şe
1325
Transfer
##tide
Wolves
Manuela
Outre
B5
postes
pride
édité
##ibes
Connie
##writing
937
Barangay
Borgo
ambassador
Bow
##mondo
émissions
1210
766
##ulations
Abrams
qualitat
##zov
1A
maintains
Nada
##peler
Interpretation
Strait
Bf
##veda
psychological
travaillé
##caster
##hla
rege
##esia
##āti
Basque
Morte
Nagoya
##nita
##nosi
Bartolomé
##FM
Renaud
Hr
Middlesex
relay
##action
##tructed
1377
Giancarlo
Valence
Librairie
##lias
Vehicle
commitment
##lito
909
possessions
##éni
Badminton
##landes
Pel
Mazda
aggregate
##etz
##lined
##cris
Senators
758
contacts
communis
forcing
##bourne
externe
##disi
##holders
Property
90°
Mater
Hispan
Savoy
##deva
CL
848
Cercle
##nene
Seasons
Welch
##herr
##nock
Credit
Sasha
observatoire
Labem
##rets
Supporting
##ceded
industriel
knee
exécution
engineers
##valli
##eia
streaming
##dma
Koblenz
##rdan
938
##pion
endangered
##urée
Pasquale
trouvait
##kuma
légèrement
JK
Duff
##hmi
##SM
##ût
politicians
maternal
Siam
026
theatrical
846
##fried
##region
818
Mil
colleagues
913
Botany
seize
Michoacán
magister
Hilary
Hilda
Gigi
928
NSW
##cora
noti
knows
tournage
##lust
1386
##gris
##watch
hale
Johansen
##closed
Tigre
heter
##udd
aggressive
##ghed
Barbarossa
##chau
restent
Galway
MI
sieu
##üll
monumentale
requirement
##velle
##érable
assemblée
mairie
##kwa
ubi
governing
##veu
complètement
gameplay
Colo
Chartres
Rijk
##lue
##zzle
Inglis
Linguistics
Katowice
finn
religieuses
##cao
##ocke
##rdy
##rmin
Ira
##bay
Recife
beliefs
733
##yers
Jérusalem
seriously
##bacher
##cua
##motive
retreat
diffusa
Banque
Artois
##illing
Radu
Langue
particles
corpus
##claves
vulnerable
suri
surrender
Lui
##ural
##odan
##oul
2022
fate
Guthrie
varies
823
Timberlake
laisser
prevented
##rove
738
1404
##sii
##kles
VG
##ngt
964
Berkshire
Cristian
banking
##uks
Dhaka
operative
Greta
Playing
passages
892
acute
##ivated
##nkirchen
rebellion
926
Takes
##pment
Rollins
intermedia
##dits
##sium
visi
Suez
887
Taxi
reveal
##gator
auraient
##isma
Sèvres
1285
installé
##estes
##brio
Quarter
Perspectives
situés
Luck
Vanuatu
teeth
freight
Miloš
##tuelle
intelligent
Nexus
jin
Théodore
societies
Kobe
indice
##zali
Innocent
##loh
##fand
##erbe
Lithuanian
ML
manages
cite
Superstar
retiring
jail
variété
evident
provenant
optical
##mando
939
Piacenza
##tilia
977
##akon
739
##âne
##õ
Adige
Montfort
##wny
923
gu
##vereign
##pato
Mille
gaining
##ored
Print
Havilland
pierres
##kada
Nicky
Vis
Kapoor
Presses
##bá
Seul
##oles
##tuit
##oze
rama
##pei
MMA
sels
##orne
##pero
strings
Ernie
Opening
##dels
infant
Sylvain
##jee
électronique
lancer
secrets
##omu
enseigne
1452
##cultural
##bali
cathedral
##pens
Cass
Lock
1378
Mesopotamia
##nsky
solen
Lindl
##uddin
##arm
Atene
Désa
##seur
##valiers
volumi
pseudo
##thique
JC
tropicales
motifs
##siste
nai
##reep
propone
##édia
VfB
Tiffany
##üller
WRC
1431
Isles
errors
numera
##hochschule
##hog
fairly
owns
##lios
Tada
##ferma
xx
##dicate
##pana
##ifera
Atkinson
##gap
Arnhem
##nommen
##neous
Zélande
Macbeth
followers
monster
##cti
confluence
menace
Ober
Benoit
Arbor
1465
##taka
Cassidy
citizenship
817
Darius
Hegel
provision
Hague
##quilibrium
764
alder
Hirsch
Perón
Dubrovnik
Celebrity
##blem
##seh
Salto
Bunny
Lenny
Sari
mall
Acer
haren
prisoner
installer
1291
##coma
rep
Slave
##erald
exemplar
##landais
locality
reside
terrorist
##biter
##pea
div
Ghar
permanently
Kata
delay
dragon
Groove
##ESS
##ssy
Ricci
##ctos
leagues
sever
presenter
Portable
Bluff
##rurgie
Baza
Quinta
Dhabi
967
announcement
Motorsport
##hib
Márquez
Carrier
##versari
##igned
##rees
##aps
##lema
Né
incendie
##lyi
Raul
##izal
##phère
stali
##ipelago
Lahore
Souls
Magno
portent
Brittany
elemental
##onym
1399
##hine
##kuk
##onna
solem
Clock
##ugar
Catch
Illa
Wally
maréchal
798
Maître
Somebody
diet
##song
nineteenth
734
Jimi
spell
##xin
##ews
Amnesty
Bed
1397
##rony
746
##hier
Katz
Shock
##eș
##onin
##sfeld
##oked
2030
##tw
Dumont
Leopard
interdit
unions
fos
sixteen
1295
retain
acum
restore
##lette
874
discovers
##rue
##bent
##35
dubbed
Dimension
Lancia
Watanabe
##hmann
skill
##xida
##rmi
##ûs
##tich
Navarre
exil
generic
holes
Boga
##lez
##manie
Helm
pratiques
##45
##rks
doctoral
##ikh
Inst
Invisible
##posed
Huis
représenté
Durand
nazis
Zimmermann
Ass
Viscount
vile
coli
##beau
Window
releasing
##lase
Lasse
1464
ammunition
##nang
Volker
##gid
Ezra
Guangdong
tango
Besides
TK
Tun
clay
médio
##isent
##mmet
Desire
ish
vendu
Maha
Athena
anniversaire
contemporain
##endi
##ences
déclaré
Méndez
##lende
Kristin
872
##uction
##ijs
Cinq
Finlande
861
Vivian
promised
oka
##hwa
##tement
1421
##sya
793
Milo
antics
pense
cricketer
##duk
Traité
Treasury
##presso
803
Donnell
1463
Hicks
##spect
1305
##raat
modeli
##ntet
remis
1466
manufacturers
##NT
##aina
##romo
Erin
vitro
classée
##ndering
##sterio
libraries
cure
VfL
Rembrandt
voices
Carbon
##HP
##roen
blot
##ctura
1375
nucléaire
e4
sharp
ruins
897
workshops
##gist
##rms
autonomie
998
##tence
Flamengo
Flotte
##iologie
Verne
transformed
##mune
782
Less
##ohn
##ocence
919
Electrical
Barrow
Buckley
FOX
hull
Jurassic
Sve
##stres
bob
##rowing
906
freestyle
##lide
Sapporo
severely
Patty
##diocese
##miques
UMP
##pm
civilians
##vente
Meg
Dewey
tourne
##ppy
##omir
draws
conséquence
##ML
Esperanto
Anglais
Monty
entrepreneur
##itra
##etin
##gall
##peli
Contact
Strategy
U23
Rimini
##rky
Tyson
##51
Keynes
Kirsten
th
##áp
imam
##ips
eating
moteurs
Doors
Ay
Selection
aménagement
##cium
PV
basal
##kha
##varo
796
##glo
stones
Margot
bronz
épreuves
Cadillac
invitation
stationed
##deu
##pide
Loiret
Pleasant
Walters
Evaluation
Issues
Burlington
Sai
tee
USAF
##ogical
Baroque
voltage
836
Reza
Hansa
Jared
##zę
WBC
advocate
##iron
Held
Seda
1422
fourteen
982
Danilo
Joanne
Zoe
##ensive
##writer
##000
lighting
1327
Cameroon
Fukuoka
##ited
##sides
##tling
Hess
##OD
Hui
##28
Mayenne
poursuite
Kolkata
talents
Chip
girlfriend
venant
##fet
1225
Élisabeth
##riers
Symposium
Rankings
desservie
Olimpia
bears
##may
VC
conjunction
##asse
Theresa
raids
cotton
Def
Concept
congrès
##clisme
##01
PAN
1458
Automobile
promu
Pax
atti
##steria
##hien
Méditerranée
repeatedly
##pani
829
Dock
centered
Scooby
Yamamoto
coureur
##start
Akbar
Across
Speech
deals
essence
##NK
Mimi
Elephant
Dubois
estimate
Cambodia
kV
##polski
##unsel
china
observa
underwent
##lmer
Packard
Toma
guides
1382
prediction
finalist
Guggenheim
##gitt
guidance
##ecta
condamné
##nson
1308
931
demanded
1215
stolen
Tone
belli
Cosmos
investigate
##bbit
legi
pink
triangular
##êne
##inea
allegedly
Rory
##éru
##clu
##nological
upcoming
##cript
corrida
bold
##Millan
773
Foley
basilica
talking
908
Stanislav
habita
satellites
Fourier
journals
observe
Armin
orientales
performer
Diamonds
##dalo
Blau
##34
sensor
Ústí
##chuk
##mua
McDonnell
##inate
ça
sight
##family
AFI
030
peintures
aquatic
arcs
ster
1275
indépendant
intermédiaire
##nition
Willard
welfare
Guillem
Reserva
##citation
##réat
USGS
violon
volunteer
858
Smash
Taking
Flanders
cloud
Northwestern
Fausto
##LM
##lione
Gull
Haifa
Hamid
deem
nationaux
##ayan
##utar
Flame
trumpet
Nestor
Slovak
##berto
Conquest
labels
succède
Grâce
raw
Robson
##esu
1307
calculation
##donia
Aboriginal
Transvaal
##faut
march
##fone
profondeur
Peder
conduite
##bid
##lowe
storyline
Favorite
burning
##raja
##brique
attaques
emerging
tornado
##dama
tomb
##38
craft
duration
cognitive
##DNA
Tek
##pac
1462
##yron
Yoon
##eem
789
altered
discover
##ags
Danube
##mí
Mod
closest
septième
fog
Hanover
791
essentiel
aérienne
SOS
pendent
sini
##lift
musulmanes
##82
couronne
Assessment
iPod
shoulder
##ader
##inato
##lasse
Middleton
##rship
Heine
##hibe
Colonna
Highlands
comprising
southeastern
Pal
Wight
##hyl
domination
Countries
drog
Bron
Espanyol
Ima
init
Weir
onwards
##jay
Doll
##kull
Hunger
##stern
facilement
sculptor
Hair
mica
TVB
œil
Debbie
Jeune
##tola
##aler
Mueller
##ession
deeply
##rmann
Eaton
Micro
compagno
Brigadier
Seuil
##stop
##ulin
Kensington
Lobo
##äki
1279
##vére
Kitchen
besoins
Oral
##ngue
1356
868
##ndro
##nsey
Eski
Cycle
Slayer
1439
##quele
contenu
##blant
##ahl
pack
1445
Alzheimer
##edra
##mortal
Leonhard
turbine
aras
##loma
##agawa
militant
Ayn
tubes
##brug
Bab
##giene
vaga
cherche
Antalya
Oaks
sacred
N°
##viu
##habilitation
##pah
##nnis
##inat
Inca
##jō
taxonomy
##tense
##ually
##given
afro
renta
##mord
comportement
##éraux
Brass
quotidien
Mining
monet
progression
933
Yvelines
personally
Dane
Kraus
Domain
##ctory
##pito
##kian
églises
Dona
Aby
##cière
##crat
McLean
legacy
Vasa
##aker
désigné
932
##avu
Identification
Puccini
instructor
##iled
##quio
limitée
##ffet
##BB
Barr
Bucarest
larvae
##loc
##hav
##fida
Hayward
Pit
quarters
Amar
cane
enable
gal
métro
##orial
##ylus
##smin
Fruit
varied
hypothesis
accompagné
observer
##mora
##dula
##strate
881
inférieur
##neaux
##ckman
##seller
sword
hae
inscrits
phenomenon
Lecce
fina
##graphical
##quo
ting
##obil
findings
##MI
Northampton
Thirty
cantata
##sume
socialist
##zá
ASCII
conclude
Loup
neighbouring
Gilmour
##bec
Leonor
Towards
Hangul
fief
943
Sinaloa
néo
email
##doro
Wheel
Occitanie
Strip
##ghton
##cisive
Manu
##iration
##eul
couverture
doctrina
##inale
orthodoxe
Tactical
Below
KHL
Monique
##ggere
Myth
Riding
creature
lock
##unces
Marais
##tudes
1333
Allende
##bett
Changes
Sicily
##relle
Liguria
Telecom
##fino
##eping
Clean
Ruben
Sunrise
chapters
papal
##hologie
##oky
inclus
présentent
##untary
mettant
##lef
présidentielle
##liers
concerti
Amalia
Cobb
remonte
personnalités
improving
##missioni
##énie
##zhi
slott
##inder
##liu
799
Gornji
##garde
##stiti
Recorded
##lob
aviat
fed
##leigh
##zama
##ehan
##guila
Rond
heb
subdivision
##jame
Himmler
transcription
##chall
##sona
Natasha
Roubaix
##rity
Néanmoins
kings
targeted
Safari
##risti
Lands
breton
##lats
873
##boards
dirigée
marques
##ploring
ambassadeur
##erated
Psychologie
Woodward
Selva
Belmont
899
##MP
Partie
rota
##dley
##mmel
tendance
##some
##uridae
Jaan
streams
##woman
Hérault
conducting
mechanisms
Ist
JavaScript
concentrated
##timate
##metres
Reese
dépend
Flat
##eş
TR
##uð
définition
##rigo
gospel
slavery
##éter
Switch
##büttel
Riders
Category
##cist
Boer
activated
948
Aa
Towers
##idge
rit
Kaufman
meni
##copa
Feng
punishment
##hli
Colbert
Ami
Occident
Sabina
Polk
D8
seized
rouges
##atia
UHF
##yramid
854
Maxi
varieties
Caledonia
immense
convent
Sundance
##wim
946
Bolzano
noblesse
##ension
##lifi
Tyne
891
##vire
##yras
serra
suddenly
JG
Bug
SED
1429
Ostrava
Harvest
preuve
1258
Bells
Mee
Parkinson
registration
Rommel
Dolls
MacArthur
Oceania
suspected
##sday
Dharma
##riés
Dogg
991
filter
rapports
##rger
Warning
diagnosis
Laden
construct
polonaise
Elektra
779
finite
##active
EX
Idea
##ević
headquartered
##reck
##ssis
Adel
départemental
##hese
Burnett
Fulton
bomber
mécanique
tourisme
Batavia
PE
cellules
##dato
##BSD
##iology
Eucalyptus
##game
Multiple
upgraded
Carolyn
favourite
deliver
A7
Buster
Styles
##tuti
1484
threw
pitched
##lating
Pacifique
##WC
##held
##izer
jord
1486
Slater
auxiliar
ETA
Anthropology
blessé
##guas
##trici
Called
##tyn
dig
vocale
##hisky
1248
0000
Sgt
wore
developer
##aic
CJ
helicopter
Fortress
autonomous
COM
kap
autoroute
bateau
recognize
salut
Smoke
Harcourt
seigneurie
Mean
matériaux
##atin
##atum
##nett
1456
Bande
Wire
Parts
Turkmenistan
##firmation
collect
enlisted
##kovic
##ntz
praise
##lami
##awn
Bourne
859
Moe
Belfort
Performing
##rary
comeback
Petty
##mmi
##roth
campagnes
Damian
NH
dieu
##èze
Cube
##ntale
Peoples
##nire
populaires
ordained
##kod
##Leod
Select
pull
##rète
honored
Sudamericana
##mentali
NFC
Rosas
##tami
Oasis
Vader
##rcy
authorized
impressive
potentially
##ponent
##tō
883
##guard
##roit
##oned
##É
mauvais
##phoridae
Content
Gaia
##gnano
Gwynedd
##zers
##vento
Wadi
Architects
zon
encountered
précise
Huesca
2x
RR
##arma
coût
shifted
##HT
Daphne
northeastern
##moor
Bengt
Noire
entretien
shirt
080
Bosnie
##teran
Playa
Hopper
sacrifice
##eering
Perrin
dancer
masculin
##dberg
Chloe
alien
brutal
interchange
Nagano
##hita
Francisca
NL
Stokes
hosting
##ckets
vacant
singers
##volve
dot
856
Catalan
Prevention
##fitte
##ssie
Shelby
##tomie
Solutions
russes
947
relegation
##jong
##udra
Bluetooth
Padua
Petru
chrétienne
##iable
Empress
Morelos
Waltz
considering
Maia
Chocolate
Bullet
##nomi
##mises
marié
Olive
Barlow
Sforza
Theological
##psa
##cey
parlementaire
Parry
##vét
distante
1312
Wonderland
##tomi
TF1
Rt
Zach
Nazis
Sexy
travelling
Casimir
océano
Maker
##bran
particulière
asa
Astra
privately
##dique
Scouts
inhabited
##eson
Umar
Domino
theoretical
##īd
divorced
grecque
Nijmegen
nécessaires
novelist
##31
Biochemistry
Churches
##hauer
Apr
disappeared
symbols
Ferrand
##sere
Comtat
##anese
##birds
Marques
1388
Polydor
Kriegsmarine
##oking
##raphy
##tert
ae
tena
##pies
A5
##ibles
Messenger
##uwe
1387
Zombie
Horton
##zuka
congregation
Jae
Yoga
fees
wheels
Sector
gardien
integra
##patrick
Clarkson
Gros
Theology
Hemingway
##fortable
graph
Calling
Doña
##oris
Patti
similarly
##urrection
##mele
Lillehammer
naturali
reliant
##teller
ombre
Rooney
treat
##leni
##sling
Lag
régulière
rurales
##mising
Concord
##jir
797
ministres
Sinai
##meria
extraction
##siv
Ethernet
Int
survivors
AZ
sad
timer
##posée
reactions
##āra
1451
chama
##dani
##hto
##êché
Alp
Sparks
##dow
Embassy
Reprise
Stettin
informatique
toll
##ogiques
deviendra
##gth
934
##source
Cain
Masse
Smiths
spécifique
##lohe
Wiltshire
renewed
apparaissent
convince
separat
##mbling
flexible
scales
garantir
prizes
##rous
Tax
##gama
##voy
carros
paying
Bono
Geneviève
deviennent
easier
plaine
coincide
##hiko
Contribution
âme
Reinhardt
Étoile
##rits
nominee
Rubio
acu
Bowen
##itte
Eintracht
passat
Enterprises
Leach
occurring
##date
1395
Constantino
Gara
Lise
Duchess
Jubilee
filiale
Sava
peau
torture
Copeland
1434
moll
##onné
Sonja
Doubleday
acquis
1437
spéciale
##qiy
##öta
Amore
prayer
1342
récemment
Ní
Triangle
1177
1418
pastoral
équipage
nak
écran
##46
burial
thermal
##èque
1409
##timi
##vile
##urities
matrice
Ayala
necessarily
relatif
##sain
##́
##vende
Superliga
sapiens
##phase
hotels
##books
Diablo
decrease
Shaun
##lco
math
Touring
##nok
##eje
##telli
##nissa
##gma
##mose
Kendall
pipe
expanding
1261
saints
##rans
Boulder
twentieth
##dicated
##rington
nationally
##fair
Hartley
Urbana
intervenir
visu
U21
##luan
Afghan
Défense
Scarlet
valet
remplacer
autumn
Regular
Flood
Essay
Krista
##CO
##rateur
##rology
916
##bini
lens
basi
drawings
##teenth
Nîmes
realizat
Belgrano
initiatives
Léopold
1491
loved
Polis
arabo
theology
HF
Karachi
##zew
ARN
viral
##etor
Daly
Munro
panels
plaques
Consumer
Pac
présenter
Virgil
Tip
##ported
1413
partai
poissons
##rayal
Martine
pistes
sap
##UB
##hode
Kis
disparition
##ulator
Moi
consequences
fera
hopes
1457
Petro
##okan
Northeast
Gambia
canadienne
##wamp
1406
adresse
intel
pregnant
beneath
1473
Fiona
Kati
transfert
Buzz
rape
tackle
##anc
Anque
##quente
1040
Ding
Kuhn
faux
##kate
##vona
Fulda
##hofen
Coal
exerce
Shire
américaines
##gies
Demographic
Bil
Telescope
kart
TV3
1412
##emba
secondaires
##zoni
mixte
##koi
##lové
deposits
838
Quran
##culum
Pahang
##FF
Sion
sot
##aea
##usto
Mikko
##ckett
##enar
##rpa
Jagger
Raleigh
889
semifinals
Canaria
##welfth
040
##ntette
1234
837
WP
Savannah
##paré
Castella
Jacopo
1427
nationwide
##org
Commissione
doctors
##llino
##érico
laps
battu
##tations
SJ
##byn
##osphate
##phie
Cel
Luzon
aîné
kids
##uada
marbre
admiral
McGill
Written
juive
occupé
##LL
##sd
heading
organist
##ptic
Notable
Deer
carbone
##irt
Located
Blas
##taires
##udan
witness
##zuma
OTAN
ligue
Clifton
##grade
##erz
conflicte
##group
priests
Canale
Chicken
993
##ntra
941
mature
##ategi
##rsk
Dodgers
hamlet
##lity
Dachau
##saw
Reichstag
1216
Ettore
historiens
floors
planter
Jobs
crowned
##lanta
Instagram
##tropical
Directeur
##AX
1332
finali
##ędzy
liés
##break
Addis
##risten
Gardiner
Mem
##liya
##rler
##vested
réduit
##cche
IQ
##rsus
départementale
Cummings
Stick
monarchie
##ilities
océan
##WS
##58
Hamas
envoie
muros
TP
##sumi
DH
Yates
Mechanics
##ptus
Framework
Ut
supervision
##INE
Canis
##hya
Rees
##adle
Elba
##anger
Niagara
Wolverine
Bomber
Ivory
Soldiers
FL
ash
precio
accomplished
##łk
Mendelssohn
lessons
##UI
##uj
Leona
Eupithecia
FS
wait
Salmon
Pla
Wilderness
Mongol
##nev
Gillespie
##jara
##lasti
##tador
1419
##werf
Offensive
Twist
imposed
chien
1438
Howell
ridge
1487
Regan
extrémité
Atkins
##arto
brach
##cesso
##gton
breast
sketch
##owed
##vestor
properly
##fora
##ssée
##ylogenetic
registre
##SD
Arras
1433
revenir
scandal
1274
Browns
##strom
fede
incorpora
##chua
Stod
Phoebe
posse
Value
Platte
démocrate
occasional
Rae
1314
Genius
1432
farmer
Instruments
##yny
##pendium
831
Bavarian
Woodstock
successi
Humberto
performers
culturelle
turc
représentent
Riot
1424
##coa
conflicts
sail
##stina
Dix
##pts
Offenbach
restante
kl
##agh
##veur
1394
liens
continentale
Playhouse
##wis
sheep
##plosive
##vle
virtually
Irma
Humanities
Elise
regardless
visant
organize
Broadcast
##venti
##WF
##ricu
lawsuit
##pulse
##voie
Celebration
employé
##lnu
##undan
abre
Wit
Ways
##belt
1428
attaché
Figure
Russ
currency
1212
1364
reservoir
##leet
Morbihan
##franco
##tén
investors
Vélez
subir
Cornelia
Bouchet
Gunn
##GO
##leo
entendre
stemme
##uds
colours
Tanner
Samba
vérité
##lyse
patriarca
superficial
wickets
##oros
##preti
Bertha
##zaba
Funny
Recreation
Lilly
Nowe
##amed
fitness
vegetation
conferences
##ups
1345
5e
Exclusive
Doha
Denny
Hurt
##thon
##RNA
##férence
Kamil
Helga
##nges
942
farms
##yid
##ituary
##essen
##lank
Genetics
legendary
##kaj
Acid
##rgi
##uchy
Sherwood
Bundestag
solide
##dij
##zade
##uder
devine
Missa
1459
activists
##bard
Carole
Trees
Fam
Welles
Zapata
gagner
##isar
##ranie
natur
##naie
##oit
mystery
étudier
##monte
##ïs
Chemnitz
Lahti
stick
1448
environments
Djibouti
##cope
##stola
1326
##rdini
inclusion
##sg
vien
##sorte
Yer
corda
Blok
vestiges
Loop
prose
admission
agence
analyses
goalkeeper
laissant
1396
Teaching
Yuki
##éd
Married
##kirch
Questions
velocity
Career
spécial
Hutton
##aras
##rème
834
manifestations
hoped
##neg
Infrared
##oidea
grotte
Woo
##dub
Wittgenstein
consent
##icki
1296
reader
similaire
Aust
taste
##PC
staged
mic
##ummer
##lok
reactor
alternatif
apartheid
##zir
dames
##là
loyal
##coach
060
Glee
espaces
Bottom
quoi
seigneurs
Companies
Giordano
##amma
Seas
populated
assembled
##veta
publish
faction
nucleo
##quality
##urst
Prost
##ukt
minus
##RD
##fast
Chatham
Rosemary
firms
aun
Curry
layers
listing
merito
ajoute
kilometre
1436
Acting
comprise
##onate
southwestern
Autonomous
##missar
Panda
##icien
Sénat
Salas
##kona
watching
encounter
##gach
côn
##fond
##horst
##stère
##grat
##liques
##áez
##biidae
##hole
##zmann
Stig
Ok
##ribution
##dega
1227
Angelina
##roma
handler
##ovac
happen
##ndola
chances
##operative
1198
##dole
##feste
pursued
##orar
offen
1398
Goran
midt
motors
##iance
Vries
acide
##véd
Grau
tos
Gert
##vacy
Fürsten
fortifications
Taliban
##nue
##ulse
Quo
Fulham
Lew
pilotes
##fect
1095
##cama
Hofmann
Rogue
##ivent
towers
##oog
Certaines
GPL
Nuremberg
Quiet
dying
textile
armies
##ouer
Bury
##ekom
023
dirigeants
philosopher
terrains
##week
Lombard
governed
##mobil
Luzern
Fay
Scientist
tackles
##rew
Grégoire
UICN
##ached
Georgi
Thorpe
carved
hypothèse
peuples
withdrawn
##bic
enjoy
##dorff
UNIX
Valverde
Hartman
Declaration
fail
##lange
Lecture
Shopping
##names
classiques
##qan
null
##LC
##centes
##meo
Mortal
ECW
##uris
revenge
##diso
Seo
##stial
dozen
Gaon
hostile
Psycho
lair
##isit
Outer
LE
divina
Citation
Nag
flute
moderni
Dominik
##ssig
feels
Permanent
1304
##walk
Nigerian
##risto
Nara
Elia
##efe
Guo
scope
##tét
fédérale
##iban
constantly
feudal
Prophet
Spurs
3DS
Destruction
##eland
Follow
abside
##ddo
##uent
Raffaele
##dira
##gesi
##tenus
##child
Shepard
colored
994
##eyer
##llin
Paraíba
##lime
varying
##meri
##69
Shooting
nitrogen
##wave
Fars
Bai
Indy
Wicked
kinds
threats
Baird
Bartlett
allegations
thèmes
Eros
tight
##gné
##abel
Hear
Pasteur
##nabis
liée
##marker
##nery
involve
Chrome
##diq
##ndr
Fact
rois
1316
Hakim
Sato
##êche
Ares
##lési
Räikkönen
laurea
##pili
Seminar
static
Cult
élevée
KA
##uels
Shen
USC
Antwerp
1489
Lulu
certification
##eague
##tering
Rosberg
BM
Suku
Jón
##arus
cand
Confederation
Falun
Maureen
suggesting
utility
mutual
##eberg
Megachile
##aver
##uari
Saddam
##llant
##frontation
relieve
##isted
1454
puisse
playa
1070
Kat
Helge
##gain
##sok
Suppl
ailes
spiral
Legislature
fresco
##azila
##mail
##raut
equally
1219
verticale
Eco
longe
##tell
1254
pourquoi
1355
##api
médica
Dok
révolutionnaire
##ovie
Pick
Riva
##belle
Thin
Nes
Wigan
Him
UD
##cret
##ficate
##shima
ventes
coopération
##file
Camilla
##ilitat
##tex
Ships
##sting
##osaurus
expertise
stronger
stretch
grosse
##ptation
tourists
Larson
vivent
répartition
##bedded
##dures
##aze
Amon
##gatif
##cended
##NY
Fiorentina
##ffers
poème
Academie
Selena
##saba
##geni
Tae
##uggling
##nham
##ramm
Gant
procura
suppression
Duffy
journalists
voyages
ACB
Counter
Beau
Pieces
##wki
Qur
fixe
##řice
Coastal
alpine
mansion
milliers
banner
terminé
##urat
Collected
Rochefort
##zien
compétitions
shelter
##leno
Gallia
simplex
Painting
Related
Renée
##okie
Survival
Adana
comedian
flowering
##SP
Connell
Dash
Magda
Reverend
##guin
depends
##course
Walls
Downs
Jag
##ssio
bells
1337
Yesterday
##mitting
Malayalam
Khalid
Released
présentation
rev
##ngton
Tatra
Tortricidae
intérêts
usan
##rvo
##iyo
##mette
ouvriers
Maxime
##oron
Ipswich
Leandro
batting
consulta
##atique
solely
##kva
compter
AIM
Auxerre
acids
donnent
##mier
##parts
Acre
##pôts
Jardin
strikes
ute
NME
1146
Hyun
##dire
Davy
Rui
zinc
knots
1189
Kurdistan
##phile
##vement
##clin
radios
règle
reso
##unod
1417
##hringen
Katrina
implications
spanning
##éint
taxon
Mindanao
##ingu
Mariah
Hen
##mom
1120
Oceano
Pomerania
trots
companion
HS
Vivo
journaux
Ivanov
##unum
##rosse
Rémy
##raneo
##ômes
Kaiserslautern
##uvre
Velázquez
##CH
Gravity
Sergey
Happiness
Qué
Cabral
##ettes
None
traversée
##jud
##pressa
1408
puits
##lves
##dans
##üe
##muk
Dreyfus
salva
##uster
Dixie
Iberia
Prin
sanat
Adi
Directorate
Perspective
##mpen
TX
Forêt
##hrys
##igu
##olc
1242
Tat
Kathryn
##roe
Catalonia
remplacement
lié
##ówka
codi
Broad
NE
Solaris
majors
##orre
letto
syne
Saba
Vogt
##kine
##mns
SU
fila
Bliss
##tifs
##niste
Dessau
peaks
hometown
tsunami
##kill
Lorca
atomic
Colleges
MTA
bench
doubt
elimination
##nite
Rockets
Iso
Weser
convoy
##veren
CBE
acquire
kilo
##geant
intensity
##nologie
expose
##wir
Mats
achievements
Gotham
Moto
ASEAN
##fend
Bos
améliorer
quê
Taste
Atlantiques
Constitutional
Forgotten
##rox
Saxony
##chant
Yankee
##rvé
Kral
justicia
##yria
IR
Metropolis
Mustang
topped
1205
Duca
##UD
##galan
##rdin
##pate
jong
##puter
Depot
eje
manuscrit
practiced
##hota
##posés
choisit
construits
##rienne
rom
##atak
sailing
consequence
militia
Piedra
wei
strategies
Stadio
workshop
##took
##kushima
Dying
memories
##roc
Crowley
capabilities
##érieur
##être
davantage
Blast
Ware
destroyer
##combe
##ąg
Lili
##wad
Hauptbahnhof
Bloomberg
Kammer
GC
Chilean
Finger
banque
Astro
ceiling
Broncos
Wisdom
Liza
chassis
introduit
lifestyle
excellence
volante
##ponenti
##ourg
##èmes
Hua
Gibb
Urbino
interpreted
Countdown
##şti
Egypte
ky
##duc
##renia
1253
##antas
Chiba
sits
collectif
réunion
##oney
##cents
##bire
Cheney
lots
##bining
Moreover
fortress
chocolate
acknowledged
1235
Hainaut
Leinster
naturelles
ruines
Gateway
Groups
##iako
Derbyshire
NR
editing
##citus
Avatar
valve
Nest
##âle
avenir
Ulysses
exercer
##onien
##dée
##inni
##vrier
##iren
Dolby
Fell
Hanau
##titi
developers
##crit
1341
Missile
##times
##gines
intact
##66
##onge
Rune
intitulée
boxing
Hotspur
calculated
##ilina
Hernán
Fujiwara
transported
##vint
musicals
##estro
Garrison
##ency
##bye
Châtillon
Finistère
##kane
Godzilla
Auburn
Bold
trauma
1315
côtes
feminist
contacte
évoque
Bolesław
Hybrid
##aku
##ielle
##jell
1361
aq
Cosmic
##ycling
Kemp
##öhm
situées
Pegasus
Wait
responsabilité
##bore
Rare
Toutes
##reuil
Moonlight
##wark
##iung
##division
viennent
Goldwyn
amended
désigner
##hée
1284
1322
##vann
##grass
1447
Futsal
Karma
conseillers
vinta
vorte
##hik
##trem
##umis
1449
Gail
##wimmer
adapté
##urio
willing
Boxing
Lycée
expressions
Bydgoszcz
forth
métropolitaine
##usé
Ragnar
montée
princes
##stide
Rajasthan
1140
devrait
rough
spelling
##chenko
Torpedo
critici
invité
inspecteur
##ggins
acclaimed
##ckle
##zawa
##bros
1266
Liter
Tatiana
1271
vicinity
estates
##isty
feeding
masculine
Ivoire
remplace
reptiles
##bors
investigations
vind
Flyers
mélange
maiden
IA
musicien
##lagi
courage
##cations
Greenland
levy
citoyens
##ovice
##pila
ICE
débit
geometry
mechanics
calcul
##citi
Kamal
Eat
Kalle
##ristianisme
##arra
##aboration
Caro
striking
thrash
##üre
Ethel
##tela
Schalke
journalism
recevoir
##liet
drapeau
mening
##agna
moines
Sora
uranium
##ussée
Abad
Ile
##dues
##umm
préparation
##gnac
Brie
seraient
##dhan
##emon
Kami
Morley
##fert
##itch
##wde
##ovan
##blia
accidents
1335
Miley
Really
prenant
Charleroi
TGV
caractéristique
petition
Pay
banca
##dota
##unit
1391
Soldat
diari
molecules
ruch
##session
malaria
Anderlecht
habitant
champs
couvre
##FS
##ynd
remise
emissions
topo
doctorate
certainly
EHF
##éka
Wakefield
gamme
Doria
synthesizer
ASP
##fty
lente
Sima
episcopal
##oks
Rosie
german
##cursions
##ptur
Tau
miss
##rsti
Esch
Lists
##xies
Göring
testament
##sale
Avril
##FK
##yasa
Lune
Bystrica
Falk
RAW
iné
ennemis
Ethnic
Mabel
balls
streak
##onat
##oum
HB
expositions
Beatrix
Grange
##ivation
Bundes
Formosa
##gda
##thesis
##leb
impressed
Enigma
VH1
Bassa
##baud
casino
constructions
##chement
##pred
chromosome
##mès
##foni
cam
##èges
Marlborough
Economist
##marked
lasting
Bender
Pearce
Myself
composers
##viet
Judd
Qi
Temperatur
Grands
magasin
##seri
Sia
##stant
Links
Interest
##blu
Asturies
Agnès
Flavio
finger
sainte
boxes
pirates
signes
##onor
entraîne
Kelley
##vska
Bayan
AMC
1362
Bugs
##bhar
##iang
Ballad
navy
scrutin
1265
compagnies
Cid
parameters
thrown
##SU
Hollande
riches
Eno
engagé
##sieg
OBE
##stia
Month
particle
##phylla
Carnaval
furniture
##lvestre
Samo
accordance
##enau
##uline
##99
##mitter
Artemis
gathering
##asure
Cathy
M6
changer
utilisent
Guadalcanal
noting
Jie
Melvin
appui
personnalité
vaut
##yga
##forts
##gku
chess
##walde
dugo
##irn
##kner
Cartier
Founded
collecting
1187
Laba
Angoulême
Named
##cella
Rossa
véhicule
Durban
Madsen
DSM
Sebastiano
bos
academia
##ients
constantes
Dramatic
runway
083
desired
traditionnelle
McKenzie
debates
##brella
Unesco
Known
Straits
menée
Vitoria
explanation
frontières
Murad
equations
Regent
Odin
chrétiens
##aves
1336
Pater
beetles
##bson
NES
Artillerie
Deadly
##bban
ware
Somali
##tinen
remarkable
réduire
duché
Mercado
##hry
##métrie
universitaires
shield
égalité
Garros
Guadeloupe
Quattro
##riate
Marcia
##urm
##plain
##uvia
couvent
noirs
Congressional
##bena
morceaux
violation
Polly
Poole
hitting
proceeded
Kira
Yoo
Reeve
vela
vins
##raid
1099
yao
Mandarin
Vengeance
070
Spur
caractères
Lamar
risques
artistica
##sait
Kjell
missionary
Marge
##irin
##ppan
Articles
##ulas
1125
suburban
Indus
kitchen
outcome
##ranti
Selim
##rran
Hanoi
destinée
##demment
relie
robots
Similarly
Lindsey
##hium
##57
##mitted
##noy
Coro
precise
mild
##jete
##vedere
##čani
##JR
diminution
sitter
Anand
Curse
Postal
ponts
##itsch
##pua
Pony
##phia
Maximus
##hig
##îte
enterprise
1351
Balkans
Blaise
##ymer
Ural
Spor
##sci
TIME
1381
##sdale
Prussian
united
##cisa
thema
Honour
##icie
##mised
##normal
##oons
souhaite
##mpet
ARM
##herent
Mechanical
Ministère
##limi
Hie
sculpteur
##lca
disputes
##regar
Penguins
trips
Mifflin
coordination
Garry
marge
1135
d5
##cend
Gaur
indicato
##hini
##onsa
Vance
instances
##xta
anciennement
contemporaine
Shark
disponibili
Brotherhood
##mètre
Fran
Ceci
##quité
##șa
Lorentz
sporting
##200
Catholics
Daytona
Lux
##vay
Esprit
##hei
License
triste
Hokkaido
Tahiti
défendre
##ronde
##Pa
##oide
fédération
Bourges
Sanat
Kannada
Therapy
clothes
effectuer
##ndant
##ofa
Coldplay
##opes
handball
μm
Truck
advisor
Austen
Pandora
Dev
Mayr
Petroleum
tutela
Lego
1318
healthy
performs
québécois
Stephenson
##finite
momentum
##gide
generali
jug
Ina
Wessex
géographique
##uilla
absorbed
midi
Ghosts
##quipe
adversaire
##teau
Nostra
Ellie
commissaire
versant
##IG
Summers
##ehr
##eker
tapa
##yū
##hanes
##lipas
##crive
Lincolnshire
quai
électricité
phare
##bello
Goldstein
##max
marc
##iated
##undo
Wireless
entries
##ellus
Approach
Quant
##arius
##mau
1443
Lato
scolaire
maintenir
employés
Yoko
rand
NF
turbo
##went
##wg
1214
lancement
##gasy
##rrir
##welling
adres
##ritur
Biblical
suburbs
élevage
1302
##gera
Punch
##ffrage
##lko
##inka
##tainer
##éger
poster
Infinite
Blum
Kors
customs
##alem
Norm
Werder
##EB
Severin
northwestern
specimen
1369
Comet
Dy
Junkers
Poll
rêve
##CI
##unga
blessés
Berna
##etat
1401
##unted
NB
boreal
Mouvement
##pont
Examples
##lax
Seigneur
Udo
renommée
##rdon
##éa
Tian
##dras
Whole
##tream
elaborate
Picard
attendre
##dej
##yant
Nuit
##shment
Flavius
Heads
Yun
cleared
stake
Cœur
nar
##father
##èlement
gras
1218
##ètes
ACT
Tornado
##ilise
Coppola
Cordillera
Limerick
Pred
##brate
##gmente
##naro
##gonia
##osen
Cai
Valeria
handled
Forget
Plays
##itato
Sweeney
Trap
##tax
##forcement
##rania
Character
LSD
lineup
Kar
Aman
##timus
Impossible
##oine
##sille
fél
Roc
enhanced
##abo
Empty
Haley
Secretaria
##through
Libération
chinoise
1276
##bati
Latine
##ghet
##riam
##andra
##pue
##iness
##zite
##zé
fires
shallow
Getting
cyn
##ruch
Reus
sodium
##ention
Christchurch
garçon
##lae
##tham
subit
domina
universelle
##RN
##vira
McKay
lecturer
##nette
settle
##02
##ghing
Colts
Composition
##sic
Marlene
##furt
##mbat
Yamato
Drummond
##nades
Sander
Wein
Cuvier
##ples
inférieure
Coma
honoris
CX
Given
Motte
##arle
Grube
Plans
##itou
wildlife
Esso
assignment
vigor
catholiques
##26
Cullen
Torah
sentiments
##loa
##éographie
ANC
préfet
##sara
##ISE
##upu
Exit
##primerie
Figueroa
Valdemar
Weapons
mèt
intern
##sonne
##gasi
Henk
importe
Ginger
amie
Trophée
##erina
Gilman
Barre
dad
##ochia
manor
saving
##uton
chercheurs
filo
##upi
##öss
Deng
Mets
densité
##idat
##wari
huitième
##innon
##tip
effectué
archipel
##eš
Bianco
##osing
Oued
naming
##pian
##ologue
Sloan
changements
preservation
##FL
Orientales
internationaux
Gan
Ani
preparing
##GS
rédaction
##afa
Babel
expelled
Hilbert
successeur
nicknamed
##TB
##rédit
Asiatic
Motown
consideration
Arti
Alley
##27
##boken
Stare
##rical
##vive
Distance
Ludovic
##zinger
1403
propriétaires
peur
ovu
confiance
##auri
Frei
##hön
rings
##VI
##ïssa
Romane
differential
grammar
##krit
favorables
##istant
##union
##issait
1414
##ailles
##tenu
Steelers
##karan
faculté
stratégie
##mediate
imprisonment
##gating
smo
sœurs
##feldt
TA
catégories
Heidegger
Interface
Merchant
Stari
##quiert
##tisme
##lala
Pescara
crashed
Lear
découvrir
##plantation
##ococcus
Pardubice
rises
##42
laissé
souvenir
learns
poule
reads
##onology
Collegiate
##onom
homosexual
##lition
9°
Faro
Gloucestershire
##taker
##yano
##marca
RAI
feedback
hac
##cei
Vaud
ail
##orse
EF
##IV
##imme
##opp
extinction
##mines
##emble
##ffel
##trix
pistol
##ains
##rieg
frais
relève
1441
nationality
##minated
##uvres
Aveyron
Muir
1238
illustration
##roads
Thank
sensu
Fed
1272
##grid
##video
colons
chronic
Cárdenas
Vecchio
tempore
Whitehead
##aika
##nsul
##theon
##uvel
Reflections
Shea
Cristal
bulk
Exodus
mater
Orders
##eignant
##ourt
consciousness
##Net
##cline
##celi
Lor
##flexion
##gree
##mony
réédition
##obra
Anthem
considerably
metall
Gerrit
##gged
Syd
soutient
1303
Jar
Jeunesse
Cie
allemandes
1301
rainfall
Landscape
activation
##oken
Ibsen
e5
Cramer
Dickson
calcium
flooding
##arity
detection
##spring
criticised
##person
refere
browser
##egg
Boxer
##cok
##ibu
Finalement
separately
##cense
##ckpit
chargée
##eep
Hum
sucre
Lesser
Root
##ulent
allied
##plot
célèbres
Abigail
Szczecin
##mais
depot
##icato
##viar
Medvedev
pasti
séjour
Bridget
tune
Poul
##erance
##rimo
##uleur
##ptes
##vete
Panic
##erm
##poly
Maharaja
appareils
Lori
##chés
Wilkes
Khorasan
mammals
Firth
##ruit
Rene
centaines
##buda
provoque
naturally
Rostov
##soni
aerial
Violin
badly
##soma
Kale
1442
contrairement
##ploy
##reat
stel
##tuel
maladies
Tol
Oilers
##omial
1221
Subsequently
##luence
Moravia
gravi
injection
détail
##ths
réussi
##dari
Donji
##meu
airing
##ckor
loco
##ficient
poli
##azo
##ditions
Dynamic
Madhya
##plom
Nguyen
objectifs
Gets
Rosenthal
organi
platinum
##äu
Très
marines
Sylvie
alumni
landmark
##CT
##kst
Ves
##sori
slide
convert
SEC
##akas
Nanjing
meilleures
##going
visage
obtenus
##jis
##ccus
−1
1294
##lty
Athènes
Collier
1423
Anaheim
competitors
##amus
maxima
##balt
##ceni
chaos
eliminate
##riot
boarding
Seneca
carnaval
Finch
watched
##isms
Stargate
##52
populace
Anwar
hire
snake
nid
planer
##rega
durable
gains
##tint
mutat
promotional
##onnement
Cameroun
oss
##doni
##mael
##neta
accueillir
corporal
ATM
mises
sustainable
Flesh
measuring
Gouvernement
Osbourne
ms
decreased
implement
EPA
cadet
sim
##asco
##ruga
UNICEF
undertaken
##ampa
##euses
##yri
Dacia
Karls
1277
angular
##ckey
Marjorie
Bald
M4
Macedonian
Chez
Roach
vents
Used
##issons
notar
condemned
Pasadena
marginal
##fields
##pects
Maccabi
Nymphalidae
Bowman
alcool
fé
vécu
##valence
##drial
##lotte
Basso
Teachers
SW
Selma
1206
##hment
##ellan
##zell
##ęto
1030
Radcliffe
siblings
##cines
Duval
guided
rappelle
mural
conservateur
##dles
##girl
Done
Maynard
##houses
goût
Plastic
binary
présentée
##04
hongrois
##harge
fibre
liner
Cyr
##ioi
##äck
##rdes
1323
Lust
certifications
Barth
Jacinto
divise
priority
##gru
##uting
Bose
dédiée
##rih
##tech
edges
contes
##dance
Kappa
##vité
quarante
##reer
précisément
##mell
Bucks
##drat
speaks
1352
Kato
Quinto
##bea
##iede
##utica
##vour
Dwa
rubber
seeks
Aubin
modi
##arie
projection
##terio
gross
atlas
gates
truly
C4
modul
##player
Sana
1252
Riemann
Quartier
##tach
Ellington
1393
MCA
Palatinat
Whitaker
Ballard
Reef
oak
##matique
Abbaye
Encore
counts
##crie
##diat
tobacco
##giers
##ival
##tains
Hippolyte
obligation
proclaimed
Ferran
Nye
##clusion
longues
##ronie
CAS
milita
Banská
##vika
##kell
##ianus
##cilla
##itati
Qualified
PJ
##fim
globe
Alumni
prompted
##plu
6°
donation
Mérite
chiffre
Stereo
Aki
Macédoine
suédois
##naut
##raus
Jacobi
informa
mariée
##lch
##unce
savanna
##hiu
1226
##rkin
fraud
riders
##rouge
##UC
##žić
blade
##cap
screenplay
septentrional
Partizan
##dication
##msa
Garda
mafia
##ffi
directora
Harrington
##cota
liver
remember
bonds
cycles
1407
Calendar
##amar
##YS
##ipse
1202
1259
1317
Product
##erry
Transformation
MAX
##CP
premiu
##cote
##jie
##ntre
juifs
##MM
Sarkozy
manuscripts
##ganza
##tantes
lease
##matta
1343
##entia
amitié
climb
defa
##NE
Flammarion
lesser
gastropod
ABA
Stratford
produite
##leman
Sensa
Ingen
strange
Conus
excess
BASIC
##bant
##cluant
Bent
Thu
Aida
Fantasia
ballot
heroes
##anon
dinner
##uha
1383
Bal
##pelle
fondu
slopes
Rooms
##jects
##ermann
##pach
Axis
Fayard
barrel
proceedings
Silk
Zanzibar
##leve
Twain
lab
##miste
accuse
outils
##bination
Courage
##adel
##lovaquie
financier
Ashes
Sociology
Yugoslav
organiser
rounded
iso
1194
cream
Dominion
Katharine
Krasnodar
Hachette
espoir
paysage
prou
screening
##mét
1154
Cor
##isance
Rhapsody
Ravi
argue
##PO
basque
Derrick
UAE
poorly
##rota
Umm
##anak
##initive
certificate
consacrée
Neuchâtel
Hawker
##placed
conférences
1313
##llio
corn
##ibil
##mpas
##iée
##zera
Asahi
collapsed
cort
emir
Shri
commanding
proposals
##pten
Peng
##lc
humaines
Lyman
Mani
Loki
belles
underlying
1207
Francois
Rams
crossover
tués
##hsil
1217
Dov
Qaeda
Republicans
##ritu
##érou
Cantal
computing
##ltan
ensembles
Mead
bro
##juna
##philus
Carmine
Thom
tracé
WBA
devenant
##NR
opposing
Cary
##asy
##gage
Siri
Seis
##mero
timbre
Eisenach
Holloway
Rashid
websites
##ffs
originali
invertebrates
translator
##vab
Promise
appartenait
conceived
##quest
Dual
rendered
suites
Raquel
exceptions
coupé
pursuit
Ask
Lillian
passagers
Rayon
Loud
1229
Fuck
##due
premises
Oko
User
ions
##cié
##érien
Angelica
Cheryl
##locke
R2
##sher
Ghetto
Creu
traditionnel
##crire
##rval
Lennox
psychologie
Elo
libéral
maker
Liberec
##niec
Babe
LAN
sortant
##dyn
##idit
tung
##cées
Pos
Safe
##acy
##âche
7°
##plir
adds
coordinate
dressed
Argo
rak
##heart
##rson
voye
##mbol
##rusade
##umption
responses
1268
congressional
##DM
Lauri
##IH
1060
Jing
##isited
##nida
Cop
Dama
Sleeping
solos
équivalent
Janssen
Pirate
backup
withdrawal
##üb
Sculpture
##burgh
Chantal
rupture
vieille
##uing
##pheus
##iston
chest
MSN
Osa
##osoma
Horne
conviction
qualifications
1309
physically
renovated
##final
Messi
Varsovie
##nisme
1147
Coliseum
##mle
1416
conquête
revived
##otica
Jamal
RPM
##ratie
Janne
Perl
Fribourg
##nnu
##mandant
bou
invisible
Zola
##chea
##slow
1331
measurement
##released
##natha
##rots
Penelope
transforma
mos
##missa
##otions
Animated
Sardinia
Mandat
##geren
provider
##rissa
Mesnil
disabled
##embre
1118
obvious
##oint
T1
collision
##guo
Bonnet
prevention
interprété
unclear
##ref
veille
Krim
Cheyenne
interviewed
Meadows
assassination
bombs
##gnen
Someone
employer
##dner
##redible
Martinique
abundant
messe
##cuum
##riven
Wand
Dum
tickets
##vares
##ctique
U18
Xiao
baisse
MY
##hoven
##renada
Villar
##wein
Volley
abdomen
succeed
##agos
##pti
Account
Rallye
humour
##bré
peint
prey
Oscars
routine
Sartre
##tula
facilitate
##tract
Feet
Papp
nace
skull
##ncourt
calendrier
##f6
Govern
##nnet
##raphie
##BL
Assisi
Yon
1264
Alexa
##rators
##singer
Sharif
amar
[...]
